module {
  llvm.func @malloc(i64) -> !llvm.ptr
  llvm.mlir.global private constant @__constant_148xindex_0(dense<"0x000000000000000006000000000000000F00000000000000180000000000000021000000000000002A0000000000000033000000000000003A0000000000000040000000000000004D000000000000005A000000000000006700000000000000780000000000000089000000000000009A00000000000000AB00000000000000BC00000000000000CD00000000000000DE00000000000000EF0000000000000000010000000000001101000000000000220100000000000033010000000000004301000000000000530100000000000063010000000000006E01000000000000790100000000000082010000000000009301000000000000A401000000000000B501000000000000CA01000000000000DF01000000000000F40100000000000009020000000000001E02000000000000330200000000000048020000000000005D02000000000000720200000000000087020000000000009C02000000000000B102000000000000C402000000000000D702000000000000EA02000000000000F60200000000000002030000000000000B030000000000001C030000000000002D030000000000003E03000000000000520300000000000067030000000000007C030000000000009103000000000000A603000000000000BB03000000000000D003000000000000E503000000000000FA030000000000000F04000000000000240400000000000039040000000000004C040000000000005F0400000000000072040000000000007E040000000000008A040000000000009304000000000000A304000000000000B404000000000000C504000000000000DA04000000000000EF04000000000000040500000000000019050000000000002E05000000000000430500000000000058050000000000006D0500000000000082050000000000009605000000000000AB05000000000000C005000000000000D305000000000000E605000000000000F905000000000000050600000000000011060000000000001A060000000000002B060000000000003C060000000000004D06000000000000620600000000000077060000000000008C06000000000000A106000000000000B606000000000000CB06000000000000DF06000000000000F40600000000000009070000000000001E07000000000000330700000000000048070000000000005A070000000000006D0700000000000080070000000000008C070000000000009807000000000000A107000000000000B107000000000000C107000000000000D107000000000000E407000000000000F7070000000000000A080000000000001D0800000000000030080000000000004308000000000000560800000000000069080000000000007C080000000000008E08000000000000A108000000000000B408000000000000C508000000000000D608000000000000E708000000000000F108000000000000FB0800000000000002090000000000000D090000000000001809000000000000240900000000000030090000000000003C090000000000004809000000000000540900000000000060090000000000006C09000000000000780900000000000082090000000000008C090000000000009109000000000000"> : tensor<148xindex>) {addr_space = 0 : i32, alignment = 64 : i64} : !llvm.array<148 x i64>
  llvm.mlir.global private constant @__constant_2449xindex(dense<"0x000000000000000001000000000000000700000000000000080000000000000009000000000000000A00000000000000000000000000000001000000000000000200000000000000080000000000000009000000000000000A000000000000000B000000000000000C000000000000000D000000000000000100000000000000020000000000000003000000000000000B000000000000000C000000000000000D000000000000000E000000000000000F0000000000000010000000000000000200000000000000030000000000000004000000000000000E000000000000000F000000000000001000000000000000110000000000000012000000000000001300000000000000030000000000000004000000000000000500000000000000110000000000000012000000000000001300000000000000140000000000000015000000000000001600000000000000040000000000000005000000000000000600000000000000140000000000000015000000000000001600000000000000170000000000000018000000000000001900000000000000050000000000000006000000000000001700000000000000180000000000000019000000000000001A000000000000001B0000000000000000000000000000000700000000000000080000000000000009000000000000000A000000000000001C00000000000000000000000000000001000000000000000700000000000000080000000000000009000000000000000A000000000000000B000000000000000C000000000000000D000000000000001C000000000000001D000000000000001E000000000000001F00000000000000000000000000000001000000000000000700000000000000080000000000000009000000000000000A000000000000000B000000000000000C000000000000000D000000000000001C000000000000001D000000000000001E000000000000001F00000000000000000000000000000001000000000000000700000000000000080000000000000009000000000000000A000000000000000B000000000000000C000000000000000D000000000000001C000000000000001D000000000000001E000000000000001F0000000000000001000000000000000200000000000000080000000000000009000000000000000A000000000000000B000000000000000C000000000000000D000000000000000E000000000000000F0000000000000010000000000000001D000000000000001E000000000000001F0000000000000020000000000000002100000000000000220000000000000001000000000000000200000000000000080000000000000009000000000000000A000000000000000B000000000000000C000000000000000D000000000000000E000000000000000F0000000000000010000000000000001D000000000000001E000000000000001F0000000000000020000000000000002100000000000000220000000000000001000000000000000200000000000000080000000000000009000000000000000A000000000000000B000000000000000C000000000000000D000000000000000E000000000000000F0000000000000010000000000000001D000000000000001E000000000000001F00000000000000200000000000000021000000000000002200000000000000020000000000000003000000000000000B000000000000000C000000000000000D000000000000000E000000000000000F000000000000001000000000000000110000000000000012000000000000001300000000000000200000000000000021000000000000002200000000000000230000000000000024000000000000002500000000000000020000000000000003000000000000000B000000000000000C000000000000000D000000000000000E000000000000000F000000000000001000000000000000110000000000000012000000000000001300000000000000200000000000000021000000000000002200000000000000230000000000000024000000000000002500000000000000020000000000000003000000000000000B000000000000000C000000000000000D000000000000000E000000000000000F000000000000001000000000000000110000000000000012000000000000001300000000000000200000000000000021000000000000002200000000000000230000000000000024000000000000002500000000000000030000000000000004000000000000000E000000000000000F000000000000001000000000000000110000000000000012000000000000001300000000000000140000000000000015000000000000001600000000000000230000000000000024000000000000002500000000000000260000000000000027000000000000002800000000000000030000000000000004000000000000000E000000000000000F000000000000001000000000000000110000000000000012000000000000001300000000000000140000000000000015000000000000001600000000000000230000000000000024000000000000002500000000000000260000000000000027000000000000002800000000000000030000000000000004000000000000000E000000000000000F0000000000000010000000000000001100000000000000120000000000000013000000000000001400000000000000150000000000000016000000000000002300000000000000240000000000000025000000000000002600000000000000270000000000000028000000000000000400000000000000050000000000000011000000000000001200000000000000130000000000000014000000000000001500000000000000160000000000000017000000000000001800000000000000190000000000000026000000000000002700000000000000280000000000000029000000000000002A000000000000002B000000000000000400000000000000050000000000000011000000000000001200000000000000130000000000000014000000000000001500000000000000160000000000000017000000000000001800000000000000190000000000000026000000000000002700000000000000280000000000000029000000000000002A000000000000002B000000000000000400000000000000050000000000000011000000000000001200000000000000130000000000000014000000000000001500000000000000160000000000000017000000000000001800000000000000190000000000000026000000000000002700000000000000280000000000000029000000000000002A000000000000002B00000000000000050000000000000006000000000000001400000000000000150000000000000016000000000000001700000000000000180000000000000019000000000000001A000000000000001B0000000000000029000000000000002A000000000000002B000000000000002C000000000000002D000000000000002E00000000000000050000000000000006000000000000001400000000000000150000000000000016000000000000001700000000000000180000000000000019000000000000001A000000000000001B0000000000000029000000000000002A000000000000002B000000000000002C000000000000002D000000000000002E00000000000000050000000000000006000000000000001400000000000000150000000000000016000000000000001700000000000000180000000000000019000000000000001A000000000000001B0000000000000029000000000000002A000000000000002B000000000000002C000000000000002D000000000000002E0000000000000006000000000000001700000000000000180000000000000019000000000000001A000000000000001B000000000000002C000000000000002D000000000000002E000000000000002F00000000000000300000000000000006000000000000001700000000000000180000000000000019000000000000001A000000000000001B000000000000002C000000000000002D000000000000002E000000000000002F0000000000000030000000000000000700000000000000080000000000000009000000000000000A000000000000001C000000000000001D000000000000001E000000000000001F000000000000003100000000000000080000000000000009000000000000000A000000000000000B000000000000000C000000000000000D000000000000001C000000000000001D000000000000001E000000000000001F000000000000002000000000000000210000000000000022000000000000003100000000000000320000000000000033000000000000003400000000000000080000000000000009000000000000000A000000000000000B000000000000000C000000000000000D000000000000001C000000000000001D000000000000001E000000000000001F000000000000002000000000000000210000000000000022000000000000003100000000000000320000000000000033000000000000003400000000000000080000000000000009000000000000000A000000000000000B000000000000000C000000000000000D000000000000001C000000000000001D000000000000001E000000000000001F0000000000000020000000000000002100000000000000220000000000000031000000000000003200000000000000330000000000000034000000000000000B000000000000000C000000000000000D000000000000000E000000000000000F0000000000000010000000000000001D000000000000001E000000000000001F000000000000002000000000000000210000000000000022000000000000002300000000000000240000000000000025000000000000003200000000000000330000000000000034000000000000003500000000000000360000000000000037000000000000000B000000000000000C000000000000000D000000000000000E000000000000000F0000000000000010000000000000001D000000000000001E000000000000001F000000000000002000000000000000210000000000000022000000000000002300000000000000240000000000000025000000000000003200000000000000330000000000000034000000000000003500000000000000360000000000000037000000000000000B000000000000000C000000000000000D000000000000000E000000000000000F0000000000000010000000000000001D000000000000001E000000000000001F000000000000002000000000000000210000000000000022000000000000002300000000000000240000000000000025000000000000003200000000000000330000000000000034000000000000003500000000000000360000000000000037000000000000000E000000000000000F000000000000001000000000000000110000000000000012000000000000001300000000000000200000000000000021000000000000002200000000000000230000000000000024000000000000002500000000000000260000000000000027000000000000002800000000000000350000000000000036000000000000003700000000000000380000000000000039000000000000003A000000000000000E000000000000000F000000000000001000000000000000110000000000000012000000000000001300000000000000200000000000000021000000000000002200000000000000230000000000000024000000000000002500000000000000260000000000000027000000000000002800000000000000350000000000000036000000000000003700000000000000380000000000000039000000000000003A000000000000000E000000000000000F000000000000001000000000000000110000000000000012000000000000001300000000000000200000000000000021000000000000002200000000000000230000000000000024000000000000002500000000000000260000000000000027000000000000002800000000000000350000000000000036000000000000003700000000000000380000000000000039000000000000003A0000000000000011000000000000001200000000000000130000000000000014000000000000001500000000000000160000000000000023000000000000002400000000000000250000000000000026000000000000002700000000000000280000000000000029000000000000002A000000000000002B00000000000000380000000000000039000000000000003A000000000000003B000000000000003C000000000000003D0000000000000011000000000000001200000000000000130000000000000014000000000000001500000000000000160000000000000023000000000000002400000000000000250000000000000026000000000000002700000000000000280000000000000029000000000000002A000000000000002B00000000000000380000000000000039000000000000003A000000000000003B000000000000003C000000000000003D0000000000000011000000000000001200000000000000130000000000000014000000000000001500000000000000160000000000000023000000000000002400000000000000250000000000000026000000000000002700000000000000280000000000000029000000000000002A000000000000002B00000000000000380000000000000039000000000000003A000000000000003B000000000000003C000000000000003D0000000000000014000000000000001500000000000000160000000000000017000000000000001800000000000000190000000000000026000000000000002700000000000000280000000000000029000000000000002A000000000000002B000000000000002C000000000000002D000000000000002E000000000000003B000000000000003C000000000000003D000000000000003E000000000000003F00000000000000400000000000000014000000000000001500000000000000160000000000000017000000000000001800000000000000190000000000000026000000000000002700000000000000280000000000000029000000000000002A000000000000002B000000000000002C000000000000002D000000000000002E000000000000003B000000000000003C000000000000003D000000000000003E000000000000003F00000000000000400000000000000014000000000000001500000000000000160000000000000017000000000000001800000000000000190000000000000026000000000000002700000000000000280000000000000029000000000000002A000000000000002B000000000000002C000000000000002D000000000000002E000000000000003B000000000000003C000000000000003D000000000000003E000000000000003F0000000000000040000000000000001700000000000000180000000000000019000000000000001A000000000000001B0000000000000029000000000000002A000000000000002B000000000000002C000000000000002D000000000000002E000000000000002F0000000000000030000000000000003E000000000000003F0000000000000040000000000000004100000000000000420000000000000043000000000000001700000000000000180000000000000019000000000000001A000000000000001B0000000000000029000000000000002A000000000000002B000000000000002C000000000000002D000000000000002E000000000000002F0000000000000030000000000000003E000000000000003F0000000000000040000000000000004100000000000000420000000000000043000000000000001700000000000000180000000000000019000000000000001A000000000000001B0000000000000029000000000000002A000000000000002B000000000000002C000000000000002D000000000000002E000000000000002F0000000000000030000000000000003E000000000000003F0000000000000040000000000000004100000000000000420000000000000043000000000000001A000000000000001B000000000000002C000000000000002D000000000000002E000000000000002F000000000000003000000000000000410000000000000042000000000000004300000000000000440000000000000045000000000000001A000000000000001B000000000000002C000000000000002D000000000000002E000000000000002F000000000000003000000000000000410000000000000042000000000000004300000000000000440000000000000045000000000000001C000000000000001D000000000000001E000000000000001F00000000000000310000000000000032000000000000003300000000000000340000000000000046000000000000001D000000000000001E000000000000001F00000000000000200000000000000021000000000000002200000000000000310000000000000032000000000000003300000000000000340000000000000035000000000000003600000000000000370000000000000046000000000000004700000000000000480000000000000049000000000000001D000000000000001E000000000000001F00000000000000200000000000000021000000000000002200000000000000310000000000000032000000000000003300000000000000340000000000000035000000000000003600000000000000370000000000000046000000000000004700000000000000480000000000000049000000000000001D000000000000001E000000000000001F0000000000000020000000000000002100000000000000220000000000000031000000000000003200000000000000330000000000000034000000000000003500000000000000360000000000000037000000000000004600000000000000470000000000000048000000000000004900000000000000200000000000000021000000000000002200000000000000230000000000000024000000000000002500000000000000320000000000000033000000000000003400000000000000350000000000000036000000000000003700000000000000380000000000000039000000000000003A00000000000000480000000000000049000000000000004A000000000000004B000000000000004C00000000000000200000000000000021000000000000002200000000000000230000000000000024000000000000002500000000000000320000000000000033000000000000003400000000000000350000000000000036000000000000003700000000000000380000000000000039000000000000003A000000000000004700000000000000480000000000000049000000000000004A000000000000004B000000000000004C00000000000000200000000000000021000000000000002200000000000000230000000000000024000000000000002500000000000000320000000000000033000000000000003400000000000000350000000000000036000000000000003700000000000000380000000000000039000000000000003A000000000000004700000000000000480000000000000049000000000000004A000000000000004B000000000000004C00000000000000230000000000000024000000000000002500000000000000260000000000000027000000000000002800000000000000350000000000000036000000000000003700000000000000380000000000000039000000000000003A000000000000003B000000000000003C000000000000003D000000000000004A000000000000004B000000000000004C000000000000004D000000000000004E000000000000004F00000000000000230000000000000024000000000000002500000000000000260000000000000027000000000000002800000000000000350000000000000036000000000000003700000000000000380000000000000039000000000000003A000000000000003B000000000000003C000000000000003D000000000000004A000000000000004B000000000000004C000000000000004D000000000000004E000000000000004F00000000000000230000000000000024000000000000002500000000000000260000000000000027000000000000002800000000000000350000000000000036000000000000003700000000000000380000000000000039000000000000003A000000000000003B000000000000003C000000000000003D000000000000004A000000000000004B000000000000004C000000000000004D000000000000004E000000000000004F0000000000000026000000000000002700000000000000280000000000000029000000000000002A000000000000002B00000000000000380000000000000039000000000000003A000000000000003B000000000000003C000000000000003D000000000000003E000000000000003F0000000000000040000000000000004D000000000000004E000000000000004F0000000000000050000000000000005100000000000000520000000000000026000000000000002700000000000000280000000000000029000000000000002A000000000000002B00000000000000380000000000000039000000000000003A000000000000003B000000000000003C000000000000003D000000000000003E000000000000003F0000000000000040000000000000004D000000000000004E000000000000004F0000000000000050000000000000005100000000000000520000000000000026000000000000002700000000000000280000000000000029000000000000002A000000000000002B00000000000000380000000000000039000000000000003A000000000000003B000000000000003C000000000000003D000000000000003E000000000000003F0000000000000040000000000000004D000000000000004E000000000000004F0000000000000050000000000000005100000000000000520000000000000029000000000000002A000000000000002B000000000000002C000000000000002D000000000000002E000000000000003B000000000000003C000000000000003D000000000000003E000000000000003F00000000000000400000000000000041000000000000004200000000000000430000000000000050000000000000005100000000000000520000000000000053000000000000005400000000000000550000000000000029000000000000002A000000000000002B000000000000002C000000000000002D000000000000002E000000000000003B000000000000003C000000000000003D000000000000003E000000000000003F00000000000000400000000000000041000000000000004200000000000000430000000000000050000000000000005100000000000000520000000000000053000000000000005400000000000000550000000000000029000000000000002A000000000000002B000000000000002C000000000000002D000000000000002E000000000000003B000000000000003C000000000000003D000000000000003E000000000000003F0000000000000040000000000000004100000000000000420000000000000043000000000000005000000000000000510000000000000052000000000000005300000000000000540000000000000055000000000000002C000000000000002D000000000000002E000000000000002F0000000000000030000000000000003E000000000000003F000000000000004000000000000000410000000000000042000000000000004300000000000000440000000000000045000000000000005300000000000000540000000000000055000000000000005600000000000000570000000000000058000000000000002C000000000000002D000000000000002E000000000000002F0000000000000030000000000000003E000000000000003F000000000000004000000000000000410000000000000042000000000000004300000000000000440000000000000045000000000000005300000000000000540000000000000055000000000000005600000000000000570000000000000058000000000000002C000000000000002D000000000000002E000000000000002F0000000000000030000000000000003E000000000000003F000000000000004000000000000000410000000000000042000000000000004300000000000000440000000000000045000000000000005300000000000000540000000000000055000000000000005600000000000000570000000000000058000000000000002F0000000000000030000000000000004100000000000000420000000000000043000000000000004400000000000000450000000000000056000000000000005700000000000000580000000000000059000000000000005A000000000000002F0000000000000030000000000000004100000000000000420000000000000043000000000000004400000000000000450000000000000056000000000000005700000000000000580000000000000059000000000000005A00000000000000310000000000000032000000000000003300000000000000340000000000000046000000000000004700000000000000480000000000000049000000000000005B000000000000003200000000000000330000000000000034000000000000003600000000000000370000000000000046000000000000004700000000000000480000000000000049000000000000004A000000000000004B000000000000004C000000000000005B000000000000005C000000000000005D000000000000005E0000000000000032000000000000003300000000000000340000000000000035000000000000003600000000000000370000000000000046000000000000004700000000000000480000000000000049000000000000004A000000000000004B000000000000004C000000000000005B000000000000005C000000000000005D000000000000005E0000000000000032000000000000003300000000000000340000000000000035000000000000003600000000000000370000000000000046000000000000004700000000000000480000000000000049000000000000004A000000000000004B000000000000004C000000000000005B000000000000005C000000000000005D000000000000005E00000000000000350000000000000036000000000000003700000000000000380000000000000039000000000000003A000000000000004700000000000000480000000000000049000000000000004A000000000000004B000000000000004C000000000000004D000000000000004E000000000000004F000000000000005C000000000000005D000000000000005E000000000000005F0000000000000060000000000000006100000000000000350000000000000036000000000000003700000000000000380000000000000039000000000000003A000000000000004700000000000000480000000000000049000000000000004A000000000000004B000000000000004C000000000000004D000000000000004E000000000000004F000000000000005C000000000000005D000000000000005E000000000000005F0000000000000060000000000000006100000000000000350000000000000036000000000000003700000000000000380000000000000039000000000000003A000000000000004700000000000000480000000000000049000000000000004A000000000000004B000000000000004C000000000000004D000000000000004E000000000000004F000000000000005C000000000000005D000000000000005E000000000000005F0000000000000060000000000000006100000000000000380000000000000039000000000000003A000000000000003B000000000000003C000000000000003D000000000000004A000000000000004B000000000000004C000000000000004D000000000000004E000000000000004F000000000000005000000000000000510000000000000052000000000000005F0000000000000060000000000000006100000000000000620000000000000063000000000000006400000000000000380000000000000039000000000000003A000000000000003B000000000000003C000000000000003D000000000000004A000000000000004B000000000000004C000000000000004D000000000000004E000000000000004F000000000000005000000000000000510000000000000052000000000000005F0000000000000060000000000000006100000000000000620000000000000063000000000000006400000000000000380000000000000039000000000000003A000000000000003B000000000000003C000000000000003D000000000000004A000000000000004B000000000000004C000000000000004D000000000000004E000000000000004F000000000000005000000000000000510000000000000052000000000000005F00000000000000600000000000000061000000000000006200000000000000630000000000000064000000000000003B000000000000003C000000000000003D000000000000003E000000000000003F0000000000000040000000000000004D000000000000004E000000000000004F000000000000005000000000000000510000000000000052000000000000005300000000000000540000000000000055000000000000006200000000000000630000000000000064000000000000006500000000000000660000000000000067000000000000003B000000000000003C000000000000003D000000000000003E000000000000003F0000000000000040000000000000004D000000000000004E000000000000004F000000000000005000000000000000510000000000000052000000000000005300000000000000540000000000000055000000000000006200000000000000630000000000000064000000000000006500000000000000660000000000000067000000000000003B000000000000003C000000000000003D000000000000003E000000000000003F0000000000000040000000000000004D000000000000004E000000000000004F000000000000005000000000000000510000000000000052000000000000005300000000000000540000000000000055000000000000006200000000000000630000000000000064000000000000006500000000000000660000000000000067000000000000003E000000000000003F00000000000000400000000000000041000000000000004200000000000000430000000000000050000000000000005100000000000000520000000000000053000000000000005400000000000000550000000000000056000000000000005700000000000000580000000000000066000000000000006700000000000000680000000000000069000000000000006A000000000000003E000000000000003F000000000000004000000000000000410000000000000042000000000000004300000000000000500000000000000051000000000000005200000000000000530000000000000054000000000000005500000000000000560000000000000057000000000000005800000000000000650000000000000066000000000000006700000000000000680000000000000069000000000000006A000000000000003E000000000000003F000000000000004000000000000000410000000000000042000000000000004300000000000000500000000000000051000000000000005200000000000000530000000000000054000000000000005500000000000000560000000000000057000000000000005800000000000000650000000000000066000000000000006700000000000000680000000000000069000000000000006A000000000000004100000000000000420000000000000043000000000000004400000000000000450000000000000053000000000000005400000000000000550000000000000056000000000000005700000000000000580000000000000059000000000000005A00000000000000680000000000000069000000000000006A000000000000006B000000000000006C000000000000006D000000000000004100000000000000420000000000000043000000000000004400000000000000450000000000000053000000000000005400000000000000550000000000000056000000000000005700000000000000580000000000000059000000000000005A00000000000000680000000000000069000000000000006A000000000000006B000000000000006C000000000000006D000000000000004100000000000000420000000000000043000000000000004400000000000000450000000000000053000000000000005400000000000000550000000000000056000000000000005700000000000000580000000000000059000000000000005A00000000000000680000000000000069000000000000006A000000000000006B000000000000006C000000000000006D000000000000004400000000000000450000000000000056000000000000005700000000000000580000000000000059000000000000005A000000000000006B000000000000006C000000000000006D000000000000006E000000000000006F000000000000004400000000000000450000000000000056000000000000005700000000000000580000000000000059000000000000005A000000000000006B000000000000006C000000000000006D000000000000006E000000000000006F0000000000000046000000000000004700000000000000480000000000000049000000000000005B000000000000005C000000000000005D000000000000005E0000000000000070000000000000004700000000000000480000000000000049000000000000004A000000000000004B000000000000004C000000000000005B000000000000005C000000000000005D000000000000005E000000000000005F000000000000006000000000000000610000000000000070000000000000007100000000000000720000000000000073000000000000004700000000000000480000000000000049000000000000004A000000000000004B000000000000004C000000000000005B000000000000005C000000000000005D000000000000005E000000000000005F000000000000006000000000000000610000000000000070000000000000007100000000000000720000000000000073000000000000004700000000000000480000000000000049000000000000004A000000000000004B000000000000004C000000000000005B000000000000005C000000000000005D000000000000005E000000000000005F000000000000006000000000000000610000000000000070000000000000007100000000000000720000000000000073000000000000004A000000000000004B000000000000004C000000000000004D000000000000004E000000000000004F000000000000005C000000000000005D000000000000005E000000000000005F00000000000000600000000000000061000000000000006200000000000000630000000000000064000000000000007100000000000000720000000000000073000000000000007400000000000000750000000000000076000000000000004A000000000000004B000000000000004C000000000000004D000000000000004E000000000000004F000000000000005C000000000000005D000000000000005E000000000000005F00000000000000600000000000000061000000000000006200000000000000630000000000000064000000000000007100000000000000720000000000000073000000000000007400000000000000750000000000000076000000000000004A000000000000004B000000000000004C000000000000004D000000000000004E000000000000004F000000000000005C000000000000005D000000000000005E000000000000005F00000000000000600000000000000061000000000000006200000000000000630000000000000064000000000000007100000000000000720000000000000073000000000000007400000000000000750000000000000076000000000000004D000000000000004E000000000000004F000000000000005000000000000000510000000000000052000000000000005F00000000000000600000000000000061000000000000006200000000000000630000000000000064000000000000006500000000000000660000000000000067000000000000007400000000000000750000000000000076000000000000007700000000000000780000000000000079000000000000004D000000000000004E000000000000004F000000000000005000000000000000510000000000000052000000000000005F00000000000000600000000000000061000000000000006200000000000000630000000000000064000000000000006500000000000000660000000000000067000000000000007400000000000000750000000000000076000000000000007700000000000000780000000000000079000000000000004D000000000000004E000000000000004F000000000000005000000000000000510000000000000052000000000000005F000000000000006000000000000000610000000000000062000000000000006300000000000000640000000000000065000000000000006600000000000000670000000000000074000000000000007500000000000000760000000000000077000000000000007800000000000000790000000000000050000000000000005100000000000000520000000000000054000000000000005500000000000000620000000000000063000000000000006400000000000000650000000000000066000000000000006700000000000000680000000000000069000000000000006A000000000000007700000000000000780000000000000079000000000000007A000000000000007B000000000000007C00000000000000500000000000000051000000000000005200000000000000530000000000000054000000000000005500000000000000620000000000000063000000000000006400000000000000650000000000000066000000000000006700000000000000680000000000000069000000000000006A000000000000007700000000000000780000000000000079000000000000007A000000000000007B000000000000007C00000000000000500000000000000051000000000000005200000000000000530000000000000054000000000000005500000000000000620000000000000063000000000000006400000000000000650000000000000066000000000000006700000000000000680000000000000069000000000000006A000000000000007700000000000000780000000000000079000000000000007A000000000000007B000000000000007C00000000000000530000000000000054000000000000005500000000000000560000000000000057000000000000005800000000000000650000000000000066000000000000006700000000000000680000000000000069000000000000006A000000000000006B000000000000006C000000000000006D000000000000007A000000000000007B000000000000007C000000000000007D000000000000007E000000000000007F00000000000000530000000000000054000000000000005500000000000000560000000000000057000000000000005800000000000000650000000000000066000000000000006700000000000000680000000000000069000000000000006A000000000000006B000000000000006C000000000000006D000000000000007A000000000000007B000000000000007C000000000000007D000000000000007E000000000000007F00000000000000530000000000000054000000000000005500000000000000560000000000000057000000000000005800000000000000650000000000000066000000000000006700000000000000680000000000000069000000000000006A000000000000006B000000000000006C000000000000006D000000000000007A000000000000007B000000000000007C000000000000007D000000000000007E000000000000007F0000000000000056000000000000005700000000000000580000000000000059000000000000005A00000000000000680000000000000069000000000000006A000000000000006B000000000000006C000000000000006D000000000000006E000000000000006F000000000000007E000000000000007F0000000000000080000000000000008100000000000000820000000000000056000000000000005700000000000000580000000000000059000000000000005A00000000000000680000000000000069000000000000006A000000000000006B000000000000006C000000000000006D000000000000006E000000000000006F000000000000007D000000000000007E000000000000007F0000000000000080000000000000008100000000000000820000000000000056000000000000005700000000000000580000000000000059000000000000005A00000000000000680000000000000069000000000000006A000000000000006B000000000000006C000000000000006D000000000000006E000000000000006F000000000000007D000000000000007E000000000000007F0000000000000080000000000000008100000000000000820000000000000059000000000000005A000000000000006B000000000000006C000000000000006D000000000000006E000000000000006F000000000000008000000000000000810000000000000082000000000000008300000000000000840000000000000059000000000000005A000000000000006B000000000000006C000000000000006D000000000000006E000000000000006F00000000000000800000000000000081000000000000008200000000000000830000000000000084000000000000005B000000000000005C000000000000005D000000000000005E00000000000000700000000000000071000000000000007200000000000000730000000000000085000000000000005C000000000000005D000000000000005E000000000000005F000000000000006000000000000000610000000000000070000000000000007100000000000000720000000000000073000000000000007400000000000000750000000000000076000000000000008500000000000000860000000000000087000000000000005C000000000000005D000000000000005E000000000000005F000000000000006000000000000000610000000000000070000000000000007100000000000000720000000000000073000000000000007400000000000000750000000000000076000000000000008500000000000000860000000000000087000000000000005C000000000000005D000000000000005E000000000000005F000000000000006000000000000000610000000000000070000000000000007100000000000000720000000000000073000000000000007400000000000000750000000000000076000000000000008500000000000000860000000000000087000000000000005F000000000000006000000000000000610000000000000062000000000000006300000000000000640000000000000071000000000000007200000000000000730000000000000074000000000000007500000000000000760000000000000077000000000000007800000000000000790000000000000086000000000000008700000000000000880000000000000089000000000000005F000000000000006000000000000000610000000000000062000000000000006300000000000000640000000000000071000000000000007200000000000000730000000000000074000000000000007500000000000000760000000000000077000000000000007800000000000000790000000000000086000000000000008700000000000000880000000000000089000000000000005F000000000000006000000000000000610000000000000062000000000000006300000000000000640000000000000071000000000000007200000000000000730000000000000074000000000000007500000000000000760000000000000077000000000000007800000000000000790000000000000086000000000000008700000000000000880000000000000089000000000000006200000000000000630000000000000064000000000000006500000000000000660000000000000067000000000000007400000000000000750000000000000076000000000000007700000000000000780000000000000079000000000000007A000000000000007B000000000000007C00000000000000880000000000000089000000000000008A000000000000008B000000000000006200000000000000630000000000000064000000000000006500000000000000660000000000000067000000000000007400000000000000750000000000000076000000000000007700000000000000780000000000000079000000000000007A000000000000007B000000000000007C00000000000000880000000000000089000000000000008A000000000000008B000000000000006200000000000000630000000000000064000000000000006500000000000000660000000000000067000000000000007400000000000000750000000000000076000000000000007700000000000000780000000000000079000000000000007A000000000000007B000000000000007C00000000000000880000000000000089000000000000008A000000000000008B00000000000000650000000000000066000000000000006700000000000000680000000000000069000000000000006A000000000000007700000000000000780000000000000079000000000000007A000000000000007B000000000000007C000000000000007D000000000000007E000000000000007F000000000000008A000000000000008B000000000000008C000000000000008D00000000000000650000000000000066000000000000006700000000000000680000000000000069000000000000006A000000000000007700000000000000780000000000000079000000000000007A000000000000007B000000000000007C000000000000007D000000000000007E000000000000007F000000000000008A000000000000008B000000000000008C000000000000008D00000000000000650000000000000066000000000000006700000000000000680000000000000069000000000000006A000000000000007700000000000000780000000000000079000000000000007A000000000000007B000000000000007C000000000000007D000000000000007E000000000000007F000000000000008A000000000000008B000000000000008C000000000000008D00000000000000680000000000000069000000000000006A000000000000006C000000000000006D000000000000007A000000000000007B000000000000007C000000000000007D000000000000007E000000000000007F000000000000008000000000000000810000000000000082000000000000008C000000000000008D000000000000008E000000000000008F00000000000000680000000000000069000000000000006A000000000000006B000000000000006C000000000000006D000000000000007A000000000000007B000000000000007C000000000000007D000000000000007E000000000000007F000000000000008000000000000000810000000000000082000000000000008C000000000000008D000000000000008E000000000000008F00000000000000680000000000000069000000000000006A000000000000006B000000000000006C000000000000006D000000000000007A000000000000007B000000000000007C000000000000007D000000000000007E000000000000007F000000000000008000000000000000810000000000000082000000000000008C000000000000008D000000000000008E000000000000008F000000000000006B000000000000006C000000000000006D000000000000006E000000000000006F000000000000007D000000000000007E000000000000007F00000000000000800000000000000081000000000000008200000000000000830000000000000084000000000000008E000000000000008F00000000000000900000000000000091000000000000006B000000000000006C000000000000006D000000000000006E000000000000006F000000000000007D000000000000007E000000000000007F00000000000000800000000000000081000000000000008200000000000000830000000000000084000000000000008E000000000000008F00000000000000900000000000000091000000000000006B000000000000006C000000000000006D000000000000006E000000000000006F000000000000007D000000000000007E000000000000007F00000000000000800000000000000081000000000000008200000000000000830000000000000084000000000000008E000000000000008F00000000000000900000000000000091000000000000006E000000000000006F00000000000000800000000000000081000000000000008200000000000000830000000000000084000000000000009000000000000000910000000000000092000000000000006E000000000000006F00000000000000800000000000000081000000000000008200000000000000830000000000000084000000000000009000000000000000910000000000000092000000000000007000000000000000710000000000000072000000000000007300000000000000850000000000000086000000000000008700000000000000710000000000000072000000000000007300000000000000740000000000000075000000000000007600000000000000850000000000000086000000000000008700000000000000880000000000000089000000000000007100000000000000720000000000000073000000000000007400000000000000750000000000000076000000000000008500000000000000860000000000000087000000000000008800000000000000890000000000000074000000000000007500000000000000760000000000000077000000000000007800000000000000790000000000000086000000000000008700000000000000880000000000000089000000000000008A000000000000008B0000000000000074000000000000007500000000000000760000000000000077000000000000007800000000000000790000000000000086000000000000008700000000000000880000000000000089000000000000008A000000000000008B000000000000007700000000000000780000000000000079000000000000007A000000000000007B000000000000007C00000000000000880000000000000089000000000000008A000000000000008B000000000000008C000000000000008D000000000000007700000000000000780000000000000079000000000000007A000000000000007B000000000000007C00000000000000880000000000000089000000000000008A000000000000008B000000000000008C000000000000008D000000000000007A000000000000007B000000000000007C000000000000007D000000000000007E000000000000007F000000000000008A000000000000008B000000000000008C000000000000008D000000000000008E000000000000008F000000000000007A000000000000007B000000000000007C000000000000007D000000000000007E000000000000007F000000000000008A000000000000008B000000000000008C000000000000008D000000000000008E000000000000008F000000000000007D000000000000007E000000000000007F000000000000008000000000000000810000000000000082000000000000008C000000000000008D000000000000008E000000000000008F00000000000000900000000000000091000000000000007D000000000000007E000000000000007F000000000000008000000000000000810000000000000082000000000000008C000000000000008D000000000000008E000000000000008F0000000000000090000000000000009100000000000000800000000000000081000000000000008200000000000000830000000000000084000000000000008E000000000000008F00000000000000900000000000000091000000000000009200000000000000800000000000000081000000000000008200000000000000830000000000000084000000000000008E000000000000008F0000000000000090000000000000009100000000000000920000000000000083000000000000008400000000000000900000000000000091000000000000009200000000000000"> : tensor<2449xindex>) {addr_space = 0 : i32, alignment = 64 : i64} : !llvm.array<2449 x i64>
  llvm.mlir.global private constant @__constant_2449xf64(dense<"0x00000000A3E19141EC51B89E05582D41000000C0033B67C10000008058F843C10000000084827B410000008003025641EC51B89E05582D4100000000A3E1914114AE476105582D4146B6F3FD2442F2C00000000003576241000000C0033B67C10000008058F843C10000000084827B41000000800302564114AE476105582D4100000000A3E1914114AE47E104582D41000000002642F2C00000000003576241000000C0033B67C10000008058F843C10000000084827B41000000C00302564114AE47E104582D4100000000A3E1914114AE476105582D4146B6F3FD2442F2C00000000003576241000000E0033B67C10000008058F843C10000000084827B41000000800302564114AE476105582D4100000000A3E1914114AE47E105582D41000000002642F2C00000000003576241000000C0033B67C10000008058F843C10000000085827B41000000C00302564114AE47E105582D4100000000A3E1914114AE47E105582D4146B6F3FD2442F2C0000000200357624100000000043B67C10000000059F843C10000000085827B41000000C00302564114AE47E105582D41000000804317854146B6F3FD2442F2C0000000200357624100000000043B67C100000000F68137C1000000C084826B41000000C0033B67C100000000A3E191410000008058F8434100000080030256410000000084827B41EC51B89E04582D410000008058F843C146B6F3FD2442F2C00000008058F84341D7A3703D90AC1E4151FA42C879FF7F3F51FA42C879FF7F3F0000000090ACFEC046B6F3FD2442F2400000008058F843C146B6F3FD2442F2400000000090ACFEC00000008058F8434146B6F3FD2442F2C00000000084827B410000000003576241000000800302564151FA42C879FF7F3F000000D8A2E1A141000000000390334146B6F3FD2442F2C00000000005583D41000000C003025641000000C0033B67C10000008058F843C10000000084827B4100000080030256410000008003025641000000C0033B67C10000000084827B4151FA42C879FF7F3F0000000003903341000000D8A2E1A1410000008058F8434100000080030256410000000084827B41000000000357624146B6F3FD2442F24000000080030256410000000005583D410000008058F843C1000000002642F2C00000000090ACFEC046B6F3FD2442F2C00000008058F84341D7A3703D90AC1E41000000000000BCBFB6A0F7C61000AC3F0000000090ACFEC046B6F3FD2442F2400000008058F843C1D5CC5A0A48FB2FBF000000002642F24046B6F3FD2442F2400000000090ACFEC00000008058F84341000000002442F2C00000000084827B41000000000357624146B6F3FD2442F2400000000005583D410000008003025641000000000000BCBF000000D8A2E1A141000000000490334146B6F3FD2442F2C00000000005583D41000000800302564146B6F3FD2442F2C00000000003576241000000E0033B67C10000008058F843C10000000084827B4100000080030256410000008003025641000000C0033B67C10000008058F843C1000000C0030256410000000084827B41B6A0F7C61000AC3F0000000004903341000000D8A2E1A1410000008058F8434100000080030256410000000084827B41000000002642F2C0000000C0033B67C1000000000357624146B6F3FD2442F240000000C0030256410000000005583D410000008058F843C146B6F3FD2442F2C00000000090ACFEC046B6F3FD2442F2C00000008058F84341D7A3703D90AC1E412DE8BD310400C33F5BD07B630800BEBF0000000090ACFEC046B6F3FD2442F2400000008058F843C1A019C40776FC37BF000000002642F240000000002442F2400000000090ACFEC00000008058F8434146B6F3FD2442F2C00000000084827B41000000000357624146B6F3FD2442F2400000000005583D4100000080030256412DE8BD310400C33F000000D8A2E1A141000000000390334146B6F3FD2442F2C00000000005583D41000000C003025641000000002442F2C0000000000357624100000000043B67C10000008058F843C10000000085827B41000000C003025641000000C003025641000000E0033B67C10000008058F843C100000080030256410000000084827B415BD07B630800BEBF0000000003903341000000D8A2E1A1410000008058F84341000000C0030256410000000084827B41000000002642F2C0000000A0033B67C1000000E002576241000000002642F24000000080030256410000000005583D410000008058F843C1000000002642F2C00000000090ACFEC046B6F3FD2442F2C00000008058F84341D7A3703D90AC1E41D31742CEFBFFC0BF000000000000C63F0000000090ACFEC046B6F3FD2442F2400000008058F843C1D5CC5A0A48FB3F3F46B6F3FD2442F24046B6F3FD2442F2400000000090ACFEC00000008058F84341000000002442F2C00000000084827B41000000000357624146B6F3FD2442F2400000000005583D41000000C003025641D31742CEFBFFC0BF000000D8A2E1A1410000000003903341000000002642F2C00000000005583D410000008003025641000000002442F2C0000000000357624100000000043B67C10000008058F843C10000000084827B4100000080030256410000008003025641000000C0033B67C10000008058F843C1000000C0030256410000000084827B41000000000000C63F0000000003903341000000D8A2E1A1410000008058F8434100000080030256410000000084827B41000000002642F2C0000000E0033B67C10000002003576241000000002642F240000000C0030256410000000004583D410000008058F843C146B6F3FD2442F2C00000000090ACFEC0000000002642F2C00000008058F84341AE47E17A90AC1E41E90B21E7FD7FD43F000000000000E6BF5C8FC2F590ACFEC0000000002642F2400000000059F843C1D5CC5A0A48FB1FBF46B6F3FD2642F24046B6F3FD2242F2405C8FC2F590ACFEC00000000059F84341000000002642F2C00000000085827B41000000200357624146B6F3FD2442F2400000000005583D410000008003025641E90B21E7FD7FD43F00000028A3E1A141000000000490334146B6F3FD2442F2C00000000005583D410000000004025641000000002442F2C0000000000357624100000040043B67C10000000059F843C10000000085827B410000000004025641000000C00302564100000000043B67C10000008058F843C100000080030256410000000084827B41000000000000E6BF000000000490334100000000A3E1A1410000000059F8434100000000040256410000000085827B4146B6F3FD2642F2C000000060033B67C1000000E00257624146B6F3FD2442F24000000000040256410000000005583D410000000059F843C146B6F3FD2442F2C05C8FC2F590ACFEC046B6F3FD2442F2C00000000059F84341295C8FC290AC1E41E90B21E7FD7FDA3F5BD07B630800B63F5C8FC2F590ACFEC0000000002642F240A019C40776FC373F46B6F3FD2442F240000000002642F2405C8FC2F590ACFEC00000000059F84341000000002642F2C00000000085827B410000002003576241000000002642F2400000000005583D410000000004025641E90B21E7FD7FDA3F00000028A3E1A141000000000390334146B6F3FD2442F2C00000000005583D4146B6F3FD2442F2C0000000400357624100000060043B67C10000000059F843C10000000085827B410000000004025641000000C00302564100000000043B67C10000000059F843C100000000040256410000000085827B415BD07B630800B63F000000000390334100000028A3E1A1410000000059F843410000000004025641000000002642F2C000000060043B67C10000008003576241000000002642F24000000000040256410000000005583D4100000000F68137C15C8FC2F590ACFEC046B6F3FD2442F2C00000000059F84341AE47E17A90AC0E4100000000EE4C1C41A019C40776FC373F46B6F3FD2442F240000000002642F24046B6F3FD90ACEEC000000000BB6E3041000000C084826B41000000002642F2400000000005583D41000000000402564100000000EE4C1C4100000040A3E1914146B6F3FD2442F2C0000000400357624100000060043B67C100000000F78137C10000000085826B41EC51B89E04582D4146B6F3FD2442F240000000C0033B67C1000000000357624100000000A3E191410000008058F8434100000080030256410000000084827B41EC51B89E04582D410000000090ACFEC00000008058F843C146B6F3FD2442F240D5CC5A0A48FB2FBF46B6F3FD2442F2C0000000002642F2C00000008058F84341D7A3703D90AC1E41000000000000BCBFB6A0F7C61000AC3F0000000090ACFEC0000000002442F2400000008058F843C146B6F3FD2442F2400000000090ACFEC00000008058F8434146B6F3FD2442F2C00000008058F843410000000084827B410000008003025641000000002642F2400000000003576241000000C0033B67C10000008003025641000000000000BCBF000000D8A2E1A141000000000490334146B6F3FD2442F2C00000000005583D41000000C003025641000000C0033B67C10000008058F843C10000000084827B41000000800302564146B6F3FD2442F2C000000080030256410000000005583D4146B6F3FD2442F240000000E0033B67C100000000035762410000000084827B41B6A0F7C61000AC3F0000000004903341000000D8A2E1A1410000008058F8434100000080030256410000000084827B41000000000357624146B6F3FD2442F24000000080030256410000000005583D410000000090ACFEC00000008058F843C146B6F3FD2442F240A019C40776FC37BF000000002442F2C0000000002642F2C00000000090ACFEC046B6F3FD2442F2C00000008058F84341AE47E17A90AC1E412DE8BD310400CF3FE90B21E7FD7FD8BF5C8FC2F590ACFEC0000000002642F2400000000059F843C1D5CC5A0A48FB3FBF46B6F3FD2442F24046B6F3FD2442F2400000000090ACFEC00000008058F84341000000002642F2C00000008058F843410000000084827B41000000C003025641000000002642F2400000000003576241000000A0033B67C1000000002442F2400000000005583D4100000080030256412DE8BD310400CF3F000000D8A2E1A141000000000390334146B6F3FD2442F2C00000000005583D41000000C003025641000000002442F2C0000000C002576241000000E0033B67C10000008058F843C10000000085827B410000008003025641000000002442F2C000000080030256410000000005583D41000000002442F24000000000043B67C1000000E0025762410000008058F843C1000000C0030256410000000084827B41E90B21E7FD7FD8BF0000000003903341000000D8A2E1A1410000000059F84341000000C0030256410000000085827B41000000002642F2C0000000A0033B67C1000000000357624146B6F3FD2442F240000000C0030256410000000005583D410000000090ACFEC00000008058F843C1000000002642F240D5CC5A0A48FB3F3F000000002442F2C0000000002642F2C05C8FC2F590ACFEC046B6F3FD2442F2C00000000059F84341AE47E17A90AC1E416C41EF8D210098BF000000000000D63F0000000090ACFEC0000000002442F2400000008058F843C1D5CC5A0A48FB2F3F46B6F3FD2442F24046B6F3FD2442F2400000000090ACFEC00000008058F8434146B6F3FD2442F2C00000008058F843410000000085827B41000000800302564146B6F3FD2442F2400000000003576241000000E0033B67C1000000002642F2400000000005583D41000000C0030256416C41EF8D210098BF00000000A3E1A141000000000490334146B6F3FD2442F2C00000000005583D41000000C00302564146B6F3FD2442F2C0000000200357624100000000043B67C10000008058F843C10000000084827B41000000800302564146B6F3FD2442F2C0000000C0030256410000000005583D4146B6F3FD2442F24000000000043B67C100000020035762410000000059F843C1000000C0030256410000000085827B41000000000000D63F000000000490334100000000A3E1A1410000008058F84341000000C0030256410000000084827B4146B6F3FD2442F2C000000000043B67C10000002003576241000000002642F24000000080030256410000000005583D410000000090ACFEC00000008058F843C1000000002642F240D5CC5A0A48FB1FBF000000002442F2C046B6F3FD2642F2C00000000090ACFEC046B6F3FD2442F2C00000008058F84341D7A3703D90AC1E41D31742CEFBFFC83F17F4DE180280D1BF0000000090ACFEC046B6F3FD2442F2400000008058F843C1D5CC5A0A48FB3F3F46B6F3FD2442F240000000002442F2400000000090ACFEC00000008058F8434146B6F3FD2442F2C00000008058F843410000000084827B41000000C00302564146B6F3FD2642F240000000000357624100000060033B67C1000000002442F2400000000005583D41000000C003025641D31742CEFBFFC83F000000D8A2E1A1410000000003903341000000002642F2C00000000005583D41000000C003025641000000002442F2C0000000C00257624100000000043B67C10000008058F843C10000000084827B410000008003025641000000002442F2C000000080030256410000000004583D4146B6F3FD2242F24000000040043B67C1000000E0025762410000008058F843C1000000C0030256410000000084827B4117F4DE180280D1BF0000000003903341000000D8A2E1A1410000008058F8434100000080030256410000000085827B41000000002642F2C0000000A0033B67C10000002003576241000000002642F240000000C0030256410000000005583D415C8FC2F590ACFEC00000000059F843C146B6F3FD2442F240A019C40776FC373F46B6F3FD2442F2C0000000002642F2C00000000090ACFEC0000000002642F2C00000008058F84341AE47E17A90AC1E410B7A6F0C01C0E1BF000000000000D5BF5C8FC2F590ACFEC0000000002442F2400000000059F843C1D5CC5A0A48FB2FBF46B6F3FD2442F24046B6F3FD2442F2400000000090ACFEC00000008058F84341000000002642F2C00000000059F843410000000085827B41000000000402564146B6F3FD2442F240000000400357624100000060043B67C146B6F3FD2442F2400000000005583D4100000080030256410B7A6F0C01C0E1BF00000028A3E1A1410000000003903341000000002642F2C00000000005583D41000000000402564146B6F3FD2442F2C0000000E002576241000000C0033B67C10000008058F843C10000000084827B41000000C003025641000000002642F2C000000000040256410000000005583D41000000002642F24000000060043B67C100000080035762410000008058F843C1000000C0030256410000000085827B41000000000000D5BF000000000390334100000028A3E1A1410000000059F8434100000000040256410000000085827B4146B6F3FD2442F2C0000000C0033B67C1000000E00257624146B6F3FD2442F24000000080030256410000000004583D415C8FC2F590ACFEC00000000059F843C1000000002642F240A019C40776FC373F46B6F3FD2442F2C05C8FC2F590ACFEC0000000002642F2C00000000059F84341295C8FC290AC1E41F58590F3FE3FE13F000000000000903F5C8FC2F590ACFEC0000000002442F240A019C40776FC47BF46B6F3FD2842F240000000002242F2405C8FC2F590ACFEC00000000059F84341000000002442F2C00000000059F843410000000085827B41000000000402564146B6F3FD2442F2400000004003576241000000002442F2400000000005583D410000000004025641F58590F3FE3FE13F00000064A3E1A1410000000004903341000000002642F2C00000000005583D41000000002242F2C0000000600357624100000040053B67C10000008059F843C10000000085827B410000000004025641000000002642F2C000000000040256410000000005583D41000000002642F24000000060043B67C10000000059F843C100000000040256410000000085827B41000000000000903F000000000490334100000028A3E1A1410000000059F843410000000004025641000000002A42F2C0000000C0033B67C1000000C003576241000000002842F24000000040040256410000000005583D4146B6F3FD90ACEEC000000000F78137C15C8FC2F590ACFEC0000000002642F2C00000000059F84341AE47E17A90AC0E4100000000EC4C1C4105C078060DFD43BF46B6F3FD2442F240000000002642F240986E128390ACEEC000000000BB6E304100000000BB6E30410000000085826B41000000002442F2400000000005583D41000000000402564100000000EC4C1C4100000000A3E1914146B6F3FD2442F2C0000000E002576241000000E0033B67C100000000F68137C1000000A084826B41EC51B89E04582D4146B6F3FD2442F240000000C0033B67C1000000000357624100000000A3E191410000008058F84341000000C0030256410000000084827B41EC51B81E05582D410000000090ACFEC00000008058F843C146B6F3FD2442F240D5CC5A0A48FB3FBF000000002442F2C0000000002642F2C00000008058F84341D7A3703D90AC1E41000000000000C83F6C41EF8D2100983F0000000090ACFEC046B6F3FD2442F2400000008058F843C146B6F3FD2442F2400000000090ACFEC00000008058F8434146B6F3FD2442F2C00000008058F843410000000084827B41000000800302564146B6F3FD2442F240000000C002576241000000A0033B67C1000000C003025641000000000000C83F000000D8A2E1A141000000000390334146B6F3FD2442F2C00000000005583D410000008003025641000000E0033B67C10000008058F843C10000000085827B41000000C00302564146B6F3FD2442F2C000000080030256410000000005583D4146B6F3FD2442F240000000E0033B67C100000000035762410000000084827B416C41EF8D2100983F0000000003903341000000D8A2E1A1410000008058F84341000000C0030256410000000084827B41000000E00257624146B6F3FD2442F240000000C0030256410000000005583D410000000090ACFEC00000008058F843C146B6F3FD2442F240D5CC5A0A48FB2F3F46B6F3FD2442F2C046B6F3FD2442F2C00000000090ACFEC046B6F3FD2442F2C00000008058F84341D7A3703D90AC1E412DE8BD310400CFBF000000000000B0BF0000000090ACFEC0000000002442F2400000008058F843C1000000002642F240000000002442F2400000000090ACFEC00000008058F84341000000002442F2C00000008058F843410000000085827B41000000C00302564146B6F3FD2442F240000000200357624100000000043B67C146B6F3FD2442F2400000000005583D41000000C0030256412DE8BD310400CFBF00000000A3E1A141000000000390334146B6F3FD2642F2C00000000004583D41000000400302564146B6F3FD2442F2C0000000200357624100000000043B67C10000008058F843C10000000084827B410000008003025641000000002642F2C000000080030256410000000005583D4146B6F3FD2442F24000000000043B67C100000020035762410000008058F843C100000080030256410000000084827B41000000000000B0BF0000000003903341000000D8A2E1A1410000008058F8434100000080030256410000000084827B41000000002642F2C0000000E0033B67C10000000003576241000000002642F240000000C0030256410000000005583D410000000090ACFEC00000008058F843C1000000002642F240D5CC5A0A48FB3F3F000000002442F2C0000000002642F2C00000000090ACFEC046B6F3FD2642F2C00000008058F84341AE47E17A90AC1E41000000000000CA3F2DE8BD310400CFBF0000000090ACFEC046B6F3FD2442F2400000008058F843C13B730F09DFFB4B3F000000002642F240000000002442F2400000000090ACFEC00000008058F8434146B6F3FD2442F2C00000008058F843410000000084827B41000000800302564146B6F3FD2442F240000000C002576241000000A0033B67C1000000002442F2400000000004583D410000008003025641000000000000CA3F000000D8A2E1A141000000000390334146B6F3FD2442F2C00000000005583D41000000C003025641000000002442F2C0000000200357624100000000043B67C10000008058F843C10000000085827B41000000000402564146B6F3FD2442F2C000000080030256410000000005583D41000000002442F24000000000043B67C100000020035762410000008058F843C100000040030256410000000084827B412DE8BD310400CFBF000000000390334100000000A3E1A1410000008058F8434100000000040256410000000085827B4146B6F3FD2442F2C0000000A0033B67C1000000C00257624146B6F3FD2442F240000000C0030256410000000005583D410000000090ACFEC00000008058F843C1000000002642F240D5CC5A0A48FB2FBF46B6F3FD2442F2C046B6F3FD2442F2C00000000090ACFEC046B6F3FD2442F2C00000008058F84341AE47E17A90AC1E41D31742CEFBFFCC3F000000000000D03F0000000090ACFEC0000000002642F2400000008058F843C1D5CC5A0A48FB2F3F46B6F3FD2442F24046B6F3FD2442F2400000000090ACFEC00000008058F8434146B6F3FD2442F2C00000008058F843410000000084827B41000000C00302564146B6F3FD2442F240000000E002576241000000C0033B67C146B6F3FD2442F2400000000005583D410000000004025641D31742CEFBFFCC3F00000000A3E1A141000000000390334146B6F3FD2442F2C00000000005583D41000000800302564146B6F3FD2442F2C0000000200357624100000020043B67C10000008058F843C10000000085827B41000000C00302564146B6F3FD2442F2C000000080030256410000000005583D4146B6F3FD2442F240000000C0033B67C1000000E0025762410000008058F843C1000000C0030256410000000085827B41000000000000D03F000000000390334100000000A3E1A1410000008058F84341000000C0030256410000000084827B4146B6F3FD2442F2C000000020043B67C1000000400357624146B6F3FD2442F24000000000040256410000000005583D410000000090ACFEC00000008058F843C146B6F3FD2442F240A019C40776FC47BF000000002242F2C0000000002A42F2C00000000090ACFEC046B6F3FD2442F2C00000008058F84341AE47E17A90AC1E41000000000000C83FF58590F3FE3FEABF5C8FC2F590ACFEC0000000002242F2400000000059F843C1A019C40776FC373F000000002842F24046B6F3FD2242F2400000000090ACFEC00000008058F8434146B6F3FD2242F2C00000008058F843410000000084827B41000000800302564146B6F3FD2842F2400000006003576241000000C0033B67C1000000002642F2400000000005583D41000000C003025641000000000000C83F00000028A3E1A1410000000004903341000000002842F2C00000000006583D410000004004025641000000002442F2C00000008003576241000000A0043B67C10000000059F843C10000000085827B41000000C003025641000000002642F2C0000000C0030256410000000004583D41000000002242F24000000040053B67C1000000C0035762410000008058F843C100000080030256410000000084827B41F58590F3FE3FEABF000000000490334100000028A3E1A1410000000059F8434100000040040256410000000085827B4146B6F3FD2642F2C0000000E0033B67C1000000200357624146B6F3FD2642F240000000C0030256410000000005583D415C8FC2F590ACFEC00000008059F843C1000000002842F24005C078060DFD43BF46B6F3FD2442F2C05C8FC2F590ACFEC0000000002842F2C00000000059F843410000000091AC1E41F58590F3FE3FE6BF000000000000C4BF5C8FC2F590ACFEC046B6F3FD2642F2403B730F09DFFB4BBF46B6F3FD2442F24046B6F3FD2442F2405C8FC2F590ACFEC00000000059F84341000000002842F2C00000000059F843410000000085827B41000000400402564146B6F3FD2442F240000000E002576241000000002242F2400000000006583D410000004004025641F58590F3FE3FE6BF0000003CA3E1A1410000000004903341000000002442F2C00000000005583D4146B6F3FD2442F2C0000000C00257624100000080033B67C10000008058F843C10000000085827B410000000004025641000000002442F2C000000000040256410000000005583D41000000002642F240000000E0033B67C10000000059F843C100000040040256410000000085827B41000000000000C4BF00000000049033410000003CA3E1A1410000000059F84341000000400402564146B6F3FD2442F2C000000080033B67C1000000C00257624146B6F3FD2242F240000000C0030256410000000005583D41986E128390ACEEC000000000F68137C15C8FC2F590ACFEC0000000002442F2C00000000059F843415C8FC2F590AC0E41295C8FC2EF4C1C41E69315C3D501503F000000002642F240000000002642F240DD24068191ACEEC000000000BC6E304100000000BB6E3041000000A084826B4146B6F3FD2642F2400000000005583D410000004004025641295C8FC2EF4C1C4100000040A3E19141000000002642F2C0000000A003576241000000C0043B67C100000000F78137C10000008085826B41EC51B81E05582D4146B6F3FD2442F240000000E0033B67C1000000E00257624100000000A3E191410000008058F8434100000080030256410000000084827B41EC51B89E04582D410000000090ACFEC00000008058F843C146B6F3FD2442F24046B6F3FD2442F2C0000000002642F2C00000008058F84341D7A3703D90AC1E41000000000000C4BFA52F849CF7FFB13F0000000090ACFEC0000000002442F2400000008058F843C146B6F3FD2442F2400000000090ACFEC00000008058F8434146B6F3FD2442F2C00000008058F843410000000085827B41000000C003025641000000002642F2400000002003576241000000E0033B67C10000008003025641000000000000C4BF000000D8A2E1A1410000000004903341000000002642F2C00000000005583D41000000C003025641000000C0033B67C10000008058F843C10000000084827B41000000800302564146B6F3FD2442F2C0000000C0030256410000000005583D41000000002442F24000000000043B67C100000000035762410000000084827B41A52F849CF7FFB13F0000000004903341000000D8A2E1A1410000008058F8434100000080030256410000000084827B410000000003576241000000002642F24000000080030256410000000004583D410000000090ACFEC00000008058F843C1000000002642F2403B730F09DFFB4B3F000000002442F2C046B6F3FD2442F2C00000000090ACFEC0000000002642F2C00000008058F84341D7A3703D90AC1E41A52F849CF7FFB13F2DE8BD310400C3BF0000000090ACFEC046B6F3FD2442F2400000008058F843C13B730F09DFFB4BBF000000002642F240000000002442F2400000000090ACFEC00000008058F8434146B6F3FD2442F2C00000008058F843410000000084827B41000000C003025641000000002642F2400000002003576241000000A0033B67C1000000002442F2400000000005583D410000008003025641A52F849CF7FFB13F000000D8A2E1A1410000000003903341000000002642F2C00000000005583D41000000C003025641000000002442F2C0000000C002576241000000E0033B67C10000008058F843C10000000084827B410000008003025641000000002442F2C000000080030256410000000005583D41000000002442F24000000000043B67C1000000C0025762410000008058F843C1000000C0030256410000000084827B412DE8BD310400C3BF0000000003903341000000D8A2E1A1410000008058F8434100000080030256410000000084827B41000000002642F2C000000080033B67C1000000E00257624146B6F3FD2442F24000000080030256410000000005583D410000000090ACFEC00000008058F843C146B6F3FD2442F240D5CC5A0A48FB2F3F46B6F3FD2442F2C046B6F3FD2442F2C00000000090ACFEC0000000002642F2C00000008058F84341AE47E17A90AC1E412DE8BD310400CFBF000000000000D0BF0000000090ACFEC046B6F3FD2442F2400000008058F843C1D5CC5A0A48FB2FBF46B6F3FD2442F24046B6F3FD2442F2400000000090ACFEC00000008058F84341000000002642F2C00000008058F843410000000085827B41000000C00302564146B6F3FD2442F240000000200357624100000020043B67C146B6F3FD2442F2400000000005583D4100000080030256412DE8BD310400CFBF00000000A3E1A141000000000390334146B6F3FD2442F2C00000000005583D41000000000402564146B6F3FD2442F2C0000000E002576241000000C0033B67C10000008058F843C10000000084827B41000000C00302564146B6F3FD2442F2C000000000040256410000000005583D4146B6F3FD2442F24000000020043B67C100000040035762410000008058F843C1000000C0030256410000000084827B41000000000000D0BF000000000390334100000000A3E1A1410000008058F84341000000C0030256410000000085827B4146B6F3FD2442F2C0000000C0033B67C1000000E00257624146B6F3FD2442F24000000080030256410000000004583D410000000090ACFEC00000008058F843C146B6F3FD2442F240A019C40776FC373F000000002442F2C046B6F3FD2642F2C00000000090ACFEC046B6F3FD2442F2C00000008058F84341295C8FC290AC1E41000000000000E33F000000000080E3BF5C8FC2F590ACFEC0000000002642F2400000000059F843C1A019C40776FC47BF46B6F3FD2642F240000000002442F2405C8FC2F590ACFEC00000000059F8434146B6F3FD2442F2C00000008058F843410000000085827B410000000004025641000000002842F2400000008003576241000000E0033B67C146B6F3FD2442F2400000000005583D41000000C003025641000000000000E33F0000003CA3E1A1410000000004903341000000002642F2C00000000005583D41000000400402564146B6F3FD2242F2C00000002003576241000000A0043B67C10000000059F843C10000000085827B41000000000402564146B6F3FD2442F2C0000000C0030256410000000005583D4146B6F3FD2242F240000000A0043B67C100000020035762410000008058F843C100000000040256410000000085827B41000000000080E3BF00000000049033410000003CA3E1A1410000000059F8434100000000040256410000000085827B41000000002842F2C0000000E0033B67C10000008003576241000000002642F24000000040040256410000000005583D410000000090ACFEC00000000059F843C146B6F3FD2642F2403B730F09DFFB4BBF46B6F3FD2442F2C046B6F3FD2442F2C05C8FC2F590ACFEC0000000002642F2C00000000059F84341AE47E17A90AC1E415BD07B630800B63F000000000040F93F0000000090ACFEC0000000002442F2400000000058F843C146B6F3FD2442F24046B6F3FD2442F2400000000090ACFEC00000008058F8434146B6F3FD2242F2C00000008058F843410000000085827B41000000C00302564146B6F3FD2442F240000000C00257624100000080033B67C1000000002642F2400000000005583D4100000000040256415BD07B630800B63F00000000A3E1A141000000000490334146B6F3FD2442F2C00000000005583D410000008003025641000000002642F2C0000000600357624100000040043B67C10000008058F843C10000000084827B41000000800302564146B6F3FD2242F2C0000000C0030256410000000005583D4146B6F3FD2442F24000000080033B67C1000000C0025762410000000059F843C100000040040256410000000085827B41000000000040F93F000000000490334100000000A3E1A1410000000058F8434100000040030256410000000084827B41000000002642F2C000000040043B67C1000000600357624146B6F3FD2642F24000000080030256410000000005583D415C8FC2F590ACFEC00000008058F843C146B6F3FD2242F240E69315C3D501503F000000002642F2C00000000090ACFEC046B6F3FD2442F2C00000000058F843410000000090AC1E41FA42C879FF9FF4BF000000000000F2BF0000000090ACFEC046B6F3FD2242F2403B730F09DFFB4BBF000000002442F24046B6F3FD2442F2400000000090ACFEC00000000058F8434146B6F3FD2442F2C00000000059F843410000000085827B41000000C003025641000000002642F240000000A003576241000000002442F2400000000005583D410000004003025641FA42C879FF9FF4BF000000D8A2E1A141000000000390334146B6F3FD2642F2C00000000005583D4146B6F3FD2442F2C0000000800257624100000040033B67C10000000058F843C10000000084827B410000000003025641000000002842F2C000000000040256410000000005583D41000000002642F240000000C0043B67C10000000058F843C100000080030256410000000084827B41000000000000F2BF0000000003903341000000D8A2E1A1410000000059F84341000000C003025641000000002642F2C000000040033B67C1000000C00257624146B6F3FD2442F24000000000030256410000000004583D41DD24068191ACEEC000000000F78137C10000000090ACFEC046B6F3FD2642F2C00000000059F84341AE47E17A90AC0E41295C8FC2E84C1C413B730F09DFFB4BBF000000002442F24046B6F3FD2442F2400E2DB29D8FACEEC000000000BB6E304100000000BC6E30410000008085826B4146B6F3FD2242F2400000000005583D41000000C003025641295C8FC2E84C1C4100000000A3E1914146B6F3FD2442F2C0000000800257624100000040033B67C100000000F68137C1000000E083826B41EC51B89E04582D4146B6F3FD2442F240000000C0033B67C1000000000357624100000000A3E191410000008058F84341000000C0030256410000000085827B410000000005582D410000000090ACFEC00000008058F843C1000000002642F2403B730F09DFFB4BBF000000002442F2C0000000002642F2C00000008058F84341AE47E17A90AC1E41000000000080E63FD31742CEFBFFC0BF5C8FC2F590ACFEC0000000002642F2400000000059F843C146B6F3FD2442F2405C8FC2F590ACFEC00000000059F84341000000002642F2C00000008058F843410000000084827B410000008003025641000000002642F240000000C00257624100000080033B67C1000000C003025641000000000080E63F00000000A3E1A1410000000003903341000000002442F2C00000000005583D41000000C00302564100000000043B67C10000000059F843C10000000085827B41000000000402564146B6F3FD2442F2C000000080030256410000000004583D41000000002442F240000000E0033B67C1000000E0025762410000000085827B41D31742CEFBFFC0BF000000000390334100000000A3E1A1410000000059F8434100000000040256410000000085827B410000000003576241000000002442F24000000000040256410000000005583D410000000090ACFEC00000008058F843C146B6F3FD2442F240D5CC5A0A48FB2FBF46B6F3FD2442F2C046B6F3FD2442F2C05C8FC2F590ACFEC0000000002442F2C00000000059F84341AE47E17A90AC1E41E90B21E7FD7FD23F17F4DE180280D93F0000000090ACFEC0000000002642F2400000008058F843C1D5CC5A0A48FB2F3F000000002442F240000000002642F2400000000090ACFEC00000008058F8434146B6F3FD2442F2C00000008058F843410000000084827B41000000800302564146B6F3FD2442F240000000E002576241000000C0033B67C1000000002642F2400000000005583D410000000004025641E90B21E7FD7FD23F00000000A3E1A141000000000390334146B6F3FD2442F2C00000000005583D41000000800302564146B6F3FD2642F2C0000000600357624100000000043B67C10000008058F843C10000000085827B41000000C00302564146B6F3FD2442F2C000000080030256410000000005583D4146B6F3FD2442F240000000C0033B67C1000000E0025762410000000059F843C1000000C0030256410000000085827B4117F4DE180280D93F000000000390334100000000A3E1A1410000008058F84341000000C0030256410000000084827B41000000002442F2C000000060043B67C1000000200357624146B6F3FD2442F240000000C0030256410000000005583D410000000090ACFEC00000008058F843C146B6F3FD2442F240A019C40776FC47BF46B6F3FD2242F2C0000000002842F2C00000000090ACFEC046B6F3FD2442F2C00000008058F84341AE47E17A90AC1E41000000000000D03F17F4DE180280D1BF0000000090ACFEC046B6F3FD2242F2400000008058F843C1A019C40776FC373F000000002842F24046B6F3FD2242F2400000000090ACFEC00000008058F8434146B6F3FD2242F2C00000008058F843410000000084827B41000000800302564146B6F3FD2642F2400000002003576241000000E0033B67C1000000002642F2400000000005583D41000000C003025641000000000000D03F00000000A3E1A141000000000490334146B6F3FD2642F2C00000000006583D41000000C003025641000000002442F2C00000008003576241000000A0043B67C10000000059F843C10000000085827B41000000C003025641000000002642F2C0000000C0030256410000000004583D41000000002442F240000000A0043B67C100000080035762410000008058F843C100000080030256410000000084827B4117F4DE180280D1BF000000000490334100000000A3E1A1410000000059F8434100000000040256410000000085827B4146B6F3FD2642F2C0000000E0033B67C1000000200357624146B6F3FD2642F240000000C0030256410000000005583D415C8FC2F590ACFEC00000000059F843C1000000002642F240000000002642F2C0000000002642F2C00000000090ACFEC046B6F3FD2642F2C00000000059F84341AE47E17A90AC1E4106BD37860060F8BF000000000000B4BF0000000090ACFEC0000000002442F2400000008058F843C13B730F09DFFB4BBF46B6F3FD2442F24046B6F3FD2442F2400000000090ACFEC00000000058F84341000000002442F2C00000000059F843410000000085827B41000000400402564146B6F3FD2442F240000000600357624100000040043B67C146B6F3FD2242F2400000000006583D41000000000402564106BD37860060F8BF00000000A3E1A141000000000490334146B6F3FD2642F2C00000000005583D41000000800302564146B6F3FD2442F2C0000000C00257624100000080033B67C10000000058F843C10000000084827B41000000000302564146B6F3FD2442F2C000000000040256410000000005583D4146B6F3FD2442F24000000040043B67C100000060035762410000008058F843C1000000C0030256410000000085827B41000000000000B4BF000000000490334100000000A3E1A1410000008058F8434100000080030256410000000084827B4146B6F3FD2442F2C000000080033B67C1000000C00257624146B6F3FD2442F24000000080030256410000000004583D410000000090ACFEC00000008058F843C146B6F3FD2642F2403B730F09DFFB4BBF46B6F3FD2442F2C0000000002642F2C00000000090ACFEC046B6F3FD2642F2C00000008058F84341295C8FC290AC1E41F58590F3FE3FEE3F000000000040F0BF5C8FC2F590ACFEC0000000002A42F2400000008059F843C1D5CC5A0A48FB1FBF46B6F3FD2442F240000000002442F2405C8FC2F590ACFEC00000008059F84341000000002A42F2C00000008058F843410000000084827B410000008003025641000000002442F240000000800257624100000040033B67C1000000002442F2400000000005583D410000008003025641F58590F3FE3FEE3F00000028A3E1A141000000000390334146B6F3FD2042F2C00000000006583D41000000400402564146B6F3FD2442F2C0000000C00257624100000040033B67C10000000059F843C10000000085827B41000000800402564146B6F3FD2242F2C000000080030256410000000005583D4146B6F3FD2442F24000000040033B67C1000000C0025762410000008058F843C100000080030256410000000084827B41000000000040F0BF000000000390334100000028A3E1A1410000000059F84341000000C0040256410000000085827B41000000002442F2C000000040033B67C1000000600257624146B6F3FD2042F24000000040040256410000000006583D410000000090ACFEC00000000058F843C146B6F3FD2442F2403B730F09DFFB4BBF46B6F3FD2442F2C05C8FC2F590ACFEC046B6F3FD2042F2C00000000059F843410000000091AC1E4141EF8D2100D81040000000000000FA3F0000000090ACFEC0000000002842F24046B6F3FD2A42F240000000002442F240A4703D0A93ACFEC0000000005AF84341000000002242F2C00000000058F843410000000084827B410000000003025641000000002442F2400000008002576241000000002A42F2400000000006583D41000000C00402564141EF8D2100D8104000000078A3E1A141000000000490334146B6F3FD2242F2C00000000005583D41000000002442F2C0000000200557624100000040073B67C1000000805AF843C10000000087827B41000000800502564146B6F3FD2442F2C000000000030256410000000004583D4146B6F3FD2442F24000000040033B67C10000008059F843C100000040040256410000000085827B41000000000000FA3F000000000490334100000064A3E1A1410000008058F84341000000000402564146B6F3FD2A42F2C0000000C0053B67C1000000200557624146B6F3FD2A42F240000000C0050256410000000007583D410E2DB29D8FACEEC000000000F68137C10000000090ACFEC046B6F3FD2242F2C00000008058F8434152B81E858FAC0E41295C8FC2E84C1C41E69315C3D501503F46B6F3FD1C42F240000000002C42F2403108AC1C8EACEEC000000000BA6E304100000000BB6E3041000000E083826B41000000002842F2400000000005583D410000000004025641295C8FC2E84C1C4100000040A2E19141000000002C42F2C0000000A00257624100000000023B67C100000000F58137C1000000A082826B410000000005582D4146B6F3FD2442F24000000000043B67C1000000000357624100000000A3E191410000000059F84341000000C0030256410000000085827B410000000005582D415C8FC2F590ACFEC00000000059F843C1000000002442F240D5CC5A0A48FB2F3F46B6F3FD2642F2C0000000002442F2C00000000059F84341295C8FC290AC1E41000000000000A8BF2DE8BD310400CBBF5C8FC2F590ACFEC0000000002642F2400000000059F843C146B6F3FD2442F2405C8FC2F590ACFEC0000000002642F2C00000000059F843410000000085827B410000000004025641000000002442F240000000600357624100000060043B67C1000000C003025641000000000000A8BF00000028A3E1A141000000000390334146B6F3FD2442F2C00000000005583D41000000C00302564100000000043B67C10000000059F843C10000000004025641000000002642F2C000000000040256410000000005583D41000000002642F24000000000043B67C100000020035762410000000085827B412DE8BD310400CBBF000000000390334100000028A3E1A1410000000059F8434100000000040256410000000085827B410000000003576241000000002442F2400000000005583D410000000090ACFEC00000008058F843C146B6F3FD2442F240A019C40776FC373F000000002442F2C046B6F3FD2642F2C05C8FC2F590ACFEC046B6F3FD2442F2C00000000059F84341295C8FC290AC1E4151FA42C879FF7F3F2DE8BD310400C3BF5C8FC2F590ACFEC046B6F3FD2442F2400000000059F843C1D5CC5A0A48FB2F3F000000002642F2400000000090ACFEC046B6F3FD2442F2C00000008058F843410000000085827B41000000C003025641000000002842F2400000008003576241000000E0033B67C1000000002642F2400000000005583D41000000000402564151FA42C879FF7F3F00000028A3E1A141000000000390334146B6F3FD2642F2C00000000005583D41000000C00302564146B6F3FD2642F2C000000000043B67C10000008058F843C1000000C00302564146B6F3FD2442F2C0000000C0030256410000000005583D4146B6F3FD2242F240000000A0043B67C100000020035762410000000059F843C1000000C0030256410000000085827B412DE8BD310400C3BF000000000390334100000028A3E1A1410000000059F84341000000C0030256410000000085827B41000000002442F2C0000000200357624146B6F3FD2442F2400000000005583D410000000090ACFEC00000000059F843C146B6F3FD2642F2403B730F09DFFB4BBF46B6F3FD2442F2C046B6F3FD2442F2C05C8FC2F590ACFEC046B6F3FD2642F2C00000000059F84341AE47E17A90AC1E416C41EF8D2100983F000000000000D23F5C8FC2F590ACFEC0000000002842F2400000000059F843C1D5CC5A0A48FB2F3F000000002642F2400000000090ACFEC0000000002842F2C00000008058F843410000000085827B41000000C00302564146B6F3FD2442F240000000C00257624100000080033B67C146B6F3FD2442F2400000000005583D41000000C0030256416C41EF8D2100983F00000000A3E1A141000000000390334146B6F3FD2242F2C00000000005583D41000000C00302564146B6F3FD2642F2C000000040033B67C10000008058F843C1000000000402564146B6F3FD2242F2C0000000C0030256410000000005583D4146B6F3FD2442F24000000080033B67C1000000C0025762410000000059F843C1000000C0030256410000000085827B41000000000000D23F000000000390334100000028A3E1A1410000008058F8434100000000040256410000000085827B41000000002242F2C0000000A00257624146B6F3FD2242F2400000000005583D410000000090ACFEC00000000058F843C146B6F3FD2442F240D5CC5A0A48FB1FBF46B6F3FD2442F2C0000000002442F2C05C8FC2F590ACFEC046B6F3FD2242F2C00000008058F843410000000090AC1E41FA42C879FF9FF23F06BD37860060F53F0000000090ACFEC046B6F3FD2442F2400000000058F843C1E69315C3D501503F000000002642F2400000000090ACFEC046B6F3FD2242F2C00000000058F843410000000084827B41000000800302564146B6F3FD2442F240000000C00257624100000040033B67C1000000002842F2400000000005583D410000000004025641FA42C879FF9FF23F000000D8A2E1A141000000000390334146B6F3FD2442F2C00000000004583D410000000003025641000000002642F2C0000000C0043B67C10000000059F843C1000000C003025641000000002442F2C000000000030256410000000004583D41000000002442F24000000040033B67C100000060025762410000000059F843C1000000C0030256410000000085827B4106BD37860060F53F0000000003903341000000D8A2E1A1410000000058F8434100000000030256410000000084827B4146B6F3FD2442F2C0000000A003576241000000002842F2400000000005583D415C8FC2F590ACFEC00000000059F843C146B6F3FD2042F240000000002442F2C046B6F3FD2A42F2C00000000090ACFEC046B6F3FD2442F2C00000000058F84341D7A3703D90AC1E410000000000E008C00000000000C005C05C8FC2F590ACFEC046B6F3FD1C42F2400000000059F843C1D5CC5A0A48FB1FBF000000002442F240A4703D0A8FACFEC0000000002242F2C00000008059F843410000000085827B41000000400402564146B6F3FD2A42F2400000002005576241000000C0053B67C146B6F3FD2442F2400000000004583D4100000000030256410000000000E008C000000000A3E1A141000000000490334146B6F3FD2E42F2C00000000006583D41000000C00402564146B6F3FD2442F2C000000040033B67C10000008057F843C1000000C002025641000000002A42F2C000000080040256410000000006583D41000000002442F24000000040073B67C100000020055762410000000058F843C100000000030256410000000084827B410000000000C005C0000000000490334100000028A3E1A1410000008059F8434100000040040256410000000085827B41000000002442F2C00000006002576241000000002642F2400000000003583D41A4703D0A93ACFEC0000000805AF843C146B6F3FD2A42F240E69315C3D501503F000000002C42F2C05C8FC2F590ACFEC046B6F3FD2E42F2C00000008059F843410000000091AC1E417D21E4BCFF4F0CC006BD378600E0F43F0000000090ACFEC046B6F3FD2842F240A019C40776FC473F000000002442F2400000000090ACFEC046B6F3FD2842F2C0000000005AF843410000000087827B41000000C00502564146B6F3FD1C42F240000000A00257624146B6F3FD1C42F2400000000006583D4100000040040256417D21E4BCFF4F0CC000000064A3E1A141000000000290334146B6F3FD2042F2C00000000004583D41000000002442F2C000000040023B67C10000000058F843C10000008003025641000000002242F2C000000080050256410000000007583D41000000002C42F24000000000023B67C10000000059F843C1000000C0040256410000000085827B4106BD378600E0F43F000000000290334100000000A3E1A1410000000058F843410000008003025641000000002442F2C0000000C001576241000000002042F2400000000004583D413108AC1C8EACEEC000000000F58137C10000000090ACFEC046B6F3FD2042F2C00000000058F843410000000090AC0E4100000000F44C1C41E69315C3D501503F000000002642F240DD24068191ACEEC000000000BA6E3041000000A082826B4146B6F3FD2842F2400000000004583D41000000800302564100000000F44C1C41000000C0A2E19141000000002642F2C0000000C0043B67C100000000F78137C10000000005582D4146B6F3FD2442F24000000000043B67C10000000003576241000000804317854100000000F6813741000000C084826B415C8FC2F590ACFEC00000000059F843C1000000002442F240D5CC5A0A48FB2F3F46B6F3FD2642F2C0000000002442F2C000000000F6813741AE47E17A90AC0E4100000000ED4C1CC13D0AD7A390ACEEC000000000BB6E30C1000000002642F2C000000000040256410000000005583D41000000002642F24000000000043B67C10000002003576241000000C084826B4100000000ED4C1CC100000000A3E1914100000000F6813741000000C084826B410000000090ACFEC00000008058F843C146B6F3FD2442F240D5CC5A0A48FB2F3F46B6F3FD2642F2C0000000002242F2C03D0AD7A390ACEEC000000000F6813741AE47E17A90AC0E41AE47E17AEA4C1CC10E2DB29D8FACEEC000000000BB6E30C146B6F3FD2442F2C0000000C0030256410000000005583D41000000002642F24000000040033B67C1000000A00257624100000000BB6E30C1000000C084826B41AE47E17AEA4C1CC1000000C0A2E1914100000000F6813741000000E083826B410000000090ACFEC00000008058F843C146B6F3FD2242F240E69315C3D501503F000000002642F2C046B6F3FD2442F2C00E2DB29D8FACEEC000000000F6813741AE47E17A90AC0E4100000000F14C1CC13789416091ACEEC000000000BC6E30C1000000002842F2C000000000040256410000000005583D41000000002642F240000000C0043B67C1000000A00357624100000000BB6E30C1000000E083826B4100000000F14C1CC100000040A3E1914100000000F78137410000008085826B410000000090ACFEC00000000059F843C1000000002842F240D5CC5A0A48FB1FBF46B6F3FD2442F2C0000000002442F2C03789416091ACEEC000000000F7813741AE47E17A90AC0E41295C8FC2E84C1CC10E2DB29D8FACEEC000000000BB6E30C146B6F3FD2242F2C0000000C0030256410000000005583D41000000002442F24000000040033B67C1000000600257624100000000BC6E30C10000008085826B41295C8FC2E84C1CC100000000A3E1914100000000F6813741000000E083826B41A4703D0A8FACFEC00000008057F843C1000000002642F240A019C40776FC473F000000002442F2C0000000002442F2C00E2DB29D8FACEEC000000000F68137415C8FC2F58EAC0E4100000000E84C1CC13108AC1C8EACEEC000000000BA6E30C1000000002242F2C0000000C0020256410000000003583D41000000002442F24000000040023B67C1000000C00157624100000000BB6E30C1000000E083826B4100000000E84C1CC100000000A2E1914100000000F5813741000000A082826B410000000090ACFEC00000000058F843C1000000002042F240E69315C3D501503F000000002642F2C03108AC1C8EACEEC000000000F58137410000000090AC0E41295C8FC2F34C1CC13789416091ACEEC046B6F3FD2842F2C000000080030256410000000004583D41000000002642F240000000C0043B67C100000000BA6E30C1000000A082826B41295C8FC2F34C1CC1000000C0A2E1914100000000F7813741DD24068191ACEEC000000000F78137C13789416091ACEEC000000000F78137415C8FC2F590ACFE40"> : tensor<2449xf64>) {addr_space = 0 : i32, alignment = 64 : i64} : !llvm.array<2449 x f64>
  llvm.mlir.global private constant @__constant_148xindex(dense<"0x000000000000000006000000000000000F00000000000000180000000000000021000000000000002A0000000000000033000000000000003A0000000000000040000000000000004D000000000000005A000000000000006700000000000000780000000000000089000000000000009A00000000000000AB00000000000000BC00000000000000CD00000000000000DE00000000000000EF0000000000000000010000000000001101000000000000220100000000000033010000000000004301000000000000530100000000000063010000000000006E01000000000000790100000000000082010000000000009301000000000000A401000000000000B501000000000000CA01000000000000DF01000000000000F40100000000000008020000000000001D02000000000000320200000000000047020000000000005B02000000000000700200000000000085020000000000009A02000000000000AF02000000000000C202000000000000D502000000000000E802000000000000F402000000000000000300000000000009030000000000001A030000000000002B030000000000003C03000000000000510300000000000066030000000000007B030000000000009003000000000000A503000000000000BA03000000000000CF03000000000000E403000000000000F9030000000000000E04000000000000230400000000000038040000000000004B040000000000005E0400000000000071040000000000007D0400000000000089040000000000009204000000000000A304000000000000B404000000000000C504000000000000DA04000000000000EF04000000000000040500000000000019050000000000002E05000000000000430500000000000058050000000000006D0500000000000082050000000000009705000000000000AC05000000000000C105000000000000D405000000000000E705000000000000FA05000000000000060600000000000012060000000000001B060000000000002C060000000000003D060000000000004E06000000000000630600000000000078060000000000008D06000000000000A206000000000000B706000000000000CC06000000000000E106000000000000F6060000000000000B07000000000000200700000000000035070000000000004A070000000000005D07000000000000700700000000000083070000000000008F070000000000009B07000000000000A407000000000000B307000000000000C207000000000000D207000000000000E407000000000000F60700000000000009080000000000001B080000000000002D0800000000000040080000000000005208000000000000640800000000000077080000000000008A080000000000009D08000000000000B008000000000000C008000000000000D008000000000000E108000000000000EA08000000000000F308000000000000FA08000000000000050900000000000010090000000000001C090000000000002809000000000000340900000000000040090000000000004C090000000000005809000000000000640900000000000070090000000000007A0900000000000084090000000000008909000000000000"> : tensor<148xindex>) {addr_space = 0 : i32, alignment = 64 : i64} : !llvm.array<148 x i64>
