module {
  llvm.func @malloc(i64) -> !llvm.ptr
  llvm.mlir.global private constant @__constant_303xindex(dense<"0x000000000000000002000000000000000400000000000000060000000000000008000000000000000A000000000000000C000000000000000E00000000000000100000000000000012000000000000001A000000000000001F000000000000002200000000000000260000000000000028000000000000002B000000000000003000000000000000330000000000000036000000000000003D0000000000000045000000000000004B000000000000005200000000000000570000000000000059000000000000005B0000000000000060000000000000006700000000000000710000000000000079000000000000007D00000000000000800000000000000088000000000000008E000000000000009600000000000000A300000000000000AB00000000000000BB00000000000000C200000000000000CA00000000000000D700000000000000D900000000000000DC00000000000000DE00000000000000E200000000000000E700000000000000EF00000000000000F4000000000000000001000000000000050100000000000009010000000000000E0100000000000017010000000000001C010000000000002001000000000000290100000000000038010000000000004601000000000000570100000000000065010000000000006B0100000000000080010000000000008D010000000000009A01000000000000A601000000000000B501000000000000BC01000000000000D901000000000000EF01000000000000F101000000000000F301000000000000F501000000000000F701000000000000F901000000000000FB01000000000000FD01000000000000FF0100000000000002020000000000000D0200000000000022020000000000003702000000000000390200000000000042020000000000004E020000000000005702000000000000600200000000000074020000000000007C020000000000009202000000000000A402000000000000CB02000000000000DB02000000000000EC0200000000000006030000000000000E030000000000001E0300000000000027030000000000003B03000000000000500300000000000065030000000000007A030000000000009703000000000000A803000000000000B003000000000000C603000000000000E303000000000000FB030000000000000B040000000000002B040000000000005F040000000000009104000000000000D904000000000000090500000000000039050000000000007B05000000000000B505000000000000FD0500000000000046060000000000008E06000000000000BD060000000000001D07000000000000600700000000000074070000000000009607000000000000A507000000000000D107000000000000F80700000000000024080000000000004F080000000000008A08000000000000B308000000000000C7080000000000000209000000000000370900000000000075090000000000009609000000000000BF09000000000000060A000000000000350A000000000000930A000000000000C80A000000000000F50A000000000000400B000000000000A80B000000000000010C000000000000670C000000000000CA0C000000000000220D0000000000009F0D000000000000010E000000000000460E0000000000007C0E000000000000C40E000000000000090F0000000000003E0F0000000000008D0F000000000000E00F00000000000009100000000000000B100000000000000D100000000000001010000000000000121000000000000015100000000000001A100000000000001D10000000000000231000000000000026100000000000002B100000000000002D10000000000000331000000000000036100000000000003D100000000000004010000000000000431000000000000058100000000000006D100000000000008510000000000000BA10000000000000DE10000000000000F410000000000000291100000000000055110000000000006C110000000000008C11000000000000BF11000000000000F611000000000000231200000000000043120000000000006812000000000000A212000000000000E0120000000000001A1300000000000057130000000000007F130000000000009313000000000000BA13000000000000CE13000000000000F813000000000000231400000000000049140000000000007614000000000000B914000000000000E514000000000000FB1400000000000035150000000000007615000000000000B115000000000000DE150000000000000D160000000000005616000000000000B51600000000000017170000000000007417000000000000D61700000000000024180000000000007018000000000000BD1800000000000008190000000000005D19000000000000A119000000000000F619000000000000381A0000000000004C1A000000000000741A000000000000891A000000000000B61A000000000000EB1A000000000000161B0000000000004B1B000000000000921B000000000000C01B000000000000D71B0000000000001E1C000000000000621C000000000000AD1C000000000000D91C0000000000001D1D0000000000006A1D000000000000D61D0000000000006B1E000000000000D71E000000000000431F000000000000BF1F0000000000006B200000000000001121000000000000BA210000000000005D220000000000000723000000000000C6230000000000006324000000000000E9240000000000005925000000000000E2250000000000006A26000000000000DC260000000000006C270000000000000928000000000000642800000000000078280000000000009F28000000000000B428000000000000DD2800000000000007290000000000002E290000000000005D29000000000000A629000000000000D229000000000000E929000000000000312A000000000000782A000000000000C02A000000000000EF2A000000000000232B000000000000692B000000000000F52B000000000000772C000000000000042D000000000000922D000000000000022E000000000000932E000000000000252F000000000000B82F0000000000004930000000000000DE300000000000007E3100000000000001320000000000009C320000000000003533000000000000D63300000000000075340000000000001035000000000000BC35000000000000763600000000000003370000000000006E37000000000000DA370000000000004638000000000000B5380000000000002639000000000000A139000000000000243A000000000000B13A0000000000000E3B000000000000"> : tensor<303xindex>) {addr_space = 0 : i32, alignment = 64 : i64} : !llvm.array<303 x i64>
  llvm.mlir.global private constant 