module {
  llvm.func @malloc(i64) -> !llvm.ptr
  llvm.mlir.global private constant @__constant_147x50xf64(dense<"0xED66463F1A8E0740DC0E0D8B51171F4008AA46AF065810403D64CA87A06AFE3F02D6AA5D131A23400708E6E8F17B15403A0664AF77AF1340D4F19881CA38F03F5C902DCBD7650840C2BE9D44843F1040F3565D876A1A13408179C8940FE115400F7EE200FA3DFC3F87E123624A5C2040A2293BFDA02EB23F554D10751FA020405051F52B9DEF1D40B7B41A12F7681240B8CCE9B298481D4088D9CBB6D3AE2140DC4AAFCDC69A1840363FFED2A2DE1E4076C4211B4877184068244223D808184057772CB649B51F406EC0E78711C2EE3FED9DD15625811D406A6D1ADB6B611740E560360186A5F43F895E46B1DCD2114018E945ED7ED51940FB40F2CEA13C13401FBDE13E725B1C403691990B5C26224082AAD1AB01CA0F40126A8654513CFA3F6571FF91E90012405872158BDFC42140CE55F31C911F17400F7F4DD6A887024076A73B4F3C271540E71C3C139A041B4088669E5C53C02140C47C7901F6D1D03F83328D261763D33F5227A089B061F93F8BFD65F7E4B112402A3927F6D0CE13403F389F3A56691440C382FB010FAC0640CD5B751DAA890F40E6CB0BB08F3E1E404E603AADDB402140A4A833F790D01A40569BFF571D1912406B4AB20E4757E43F89D00836AE1F1B40CBF3E0EEAC9DF63F8011346612F52340FCFCF7E0B53B2240C11A67D311C0D73FA3ACDF4C4CB7004022718FA50F9D0340999CDA19A6160E403B51121269DB164024D6E253002C0C40A9FB00A43671FE3FD66F26A60BB11E40CA4E3FA88B540940018750A566EF1540048F6FEF1AB40F40FD4CBD6E1118F23F616BB6F2927FE03F22FC8BA03193F43FD926158DB53F1A40B114C95702490540CB85CABF96D71D408466D7BD153910408DB5BFB33DFAF23FF513CE6E2D93E13F2C9B3924B570074024B6BB07E88E2140494BE5ED08A7E43F58FE7C5BB0841940598638D6C56D22400D52F01472D51640481630815B77FC3FBD8C62B9A5D5E83F7920B24813D72340171230BABC6923405D33F9669BAB184017A06D35EB8CDF3F2B357BA015380B40E8F527F1B9530040B5368DEDB5B01D401E34BBEEADC8E73FFE0DDAAB8FE70140C4978922A40E014001A5A14621F91B40278925E5EE731B4086E63A8DB4641840B0743E3C4B401440C2DEC4909CDC1440F29881CAF8C71840D13B1570CF931940713D0AD7A3182140950C0055DC181C4076E3DD91B10A1140124BCADDE7A0214011AB3FC230801B40D253E41071432240E3512AE1097DFB3FE71BD13DEB8A194010CF1264047C23405A475513447521404C33DDEBA4AE2340C289E8D7D62F1D407C2B1213D4801E40A8E15B5837DEC53FC85D8429CAE51C40E71DA7E848AEE13F2106BAF605541F405F5E807D746A0A40AF5FB01BB62D09404EEFE2FDB8B5214055BE672442DB2240D102B4AD66DD1C400A4966F50ECF2140C689AF7614D71C40812557B1F80DF53F153944DC9C4AFD3F643A747ADEBD234065C22FF5F3261D402844C02154690440D61F6118B0240940D190F12895601B40B1A547533D991940A4C16D6DE1B9004079E57ADB4C85F93FB01D8CD827C0134062BA10AB3FF2134014083BC5AAC1E03FFB3C4679E6CD2340F8E3F6CB276BF33FFD2D01F8A7541140DD96C80567482340272F3201BFC60C403D9B559FAB6520400B293FA9F6090140BC033C69E1B2DB3FDE054A0A2CD0234040506EDBF7C82340EDB60BCD75EA1640F3734353763A1C40CA6B257497541E40266E15C440371140FE62B66455542240DAFF006BD51E13407DAF21382E931440BEDEFDF15EA51340508D976E12031A406ADB300A8207F53F5DFB027AE15E23408FC6A17E17160B408FE046CA16191340CDAD105663C9F93FACC95356D3150340E57E87A2401F1840F1BA7EC16E30214039268BFB8FBC1B40861C5BCF10CE09403F73D6A71CD300404FB0FF3A372D0C4083F6EAE3A1EF1440003620425C391340E4A08499B6DF0740290989B48D3F913F28B8585183E90440F98381E7DE031A40607825C973ED124056D7A19A924C124013F06B2409521740514CDE0033BF0940C4EA8F300CF81D40C24B70EA03991540278925E5EE8B2340EA77616BB6F2F43F5B9544F641A61D40F44F70B1A2F6104047C8409E5DBEFD3FD84AE82E899313402025766D6FB7DE3FF38DE89E757D10406E4DBA2D91DB2240F94CF6CFD3901E403A765089EB381340438EAD67086704409A44BDE0D31C044060234910AE400A40AC1A84B9DD4BFD3F16A1D80A9A561B4041F0F8F6AED11F40B83F170D195F1F4001F8A7548972FF3F556B6116DAC92340C826F911BFD21640B8020AF5F4F1024082E15CC30C7D1D40A2D5C9198AC32040BB0CFFE906CA1840BA8102EFE4730340261AA4E029C41C40B5FF01D6AA9DFB3FE0F599B33EA508409D8026C286A72040F9D85DA0A45018407FDC7EF9648511400971E5EC9D51EA3F39EE940ED62F1540D0B9DBF5D20411403239B5334C8D0A4032AF230ED9A00840E6ADBA0ED5FC2140CD565EF23F79E43F6F2F698CD68114403524EEB1F4C10340F92EA52E191F2340F75AD07B63C8F03FC100C28712FD114037AAD381ACA71640501BD5E940261B4092037635799A1C408C683BA6EEB223401958C7F14325E83FFB3F87F9F2620440F790F0BDBF41104027DE019EB49011408F6D197096D21C40C7681D554D10F73FC8091346B3F203400F48C2BE9DC40940CD1E6805866CF43F7D5BB0541790004090D959F44E050A404626E0D74812234060747973B856FC3F732B84D558D215407825C9737D7F0B4011E335AFEA7C17404D327216F6C41440CAA48636007B0F40C040102043C7FA3F05DB8827BB5123405859DB148F4BF13FBC96900F7AA61D40070C923EAD5A2040B1524145D52FEC3F31EBC5504E741140D1AFAD9FFE8311407EA99F3715A9E13F00E1438996FCF93F1FDAC70A7EDBF13F2FA699EE751A2140B03BDD79E2C9214018EE5C18E9B51F403C16DBA4A2712340512E8D5F7825F53FE947C32973F3E33FF2EA1C03B2671C4079944A78422FE03F836E2F698C9618405E10919A76511A4060AFB0E07EE01B4046B5882826CF0140FB3E1C24442914407AE063B0E294FB3FF7AE415F7A1B194031B1F9B836CC2340265305A3923A0140A60C1CD0D2D52340494739984D00EA3F624B8FA67A921E40DAAB8F87BE4B1F405F7D3CF4DD6DFA3FA661F8889812993F62DBA2CC06492140BE50C07630421540551344DD0720EE3F6FD575A8A624074070287CB60ECE1440D2A92B9FE5F9014099D4D00660D31440D02B9E7AA401F23FE1EF17B3252B16407445292158552040D13DEB1A2DC7024011001C7BF6DCEB3FCC46E7FC1407FA3F4224438EAD27FE3F978E39CFD807194072C0AE264FA91740923CD7F7E1B821403447567E198C1240327216F6B403104070404B57B09D1540EED11BEE23B7D73FFD14C781570B0B40C4D2C08F6A281540E7FC14C78197F03FA514747B4963843F9CFC169D2CAD2240005471E316F30E402C499EEBFBE016401EDC9DB5DB8E0E40EBA7FFACF9F110400E492D944CEE0B405F0CE544BB6A1240F67CCD72D9E81E4070287CB60E8E1440CE8DE9094BAC11409624CFF57D18194028603B18B1CFE43F2D05A4FD0F101040984F560C5707F53FB3EF8AE07F7B1940CEA5B8AAECDB2340B7EF517FBD4A2040F58590F3FEB72340A779C7293A52204035ECF7C43AD5F63FAFCE31207B552140B760A92EE0451840AB24B20FB2DC1F40406CE9D1544FBE3FA06D35EB8CEF164075B169A51048EC3F57276728EE581140232F6B62816F1D4094162EABB04122402A3A92CB7F382140250516C09481A33FEB6E9EEA903B154080BA8102EF4417408A1D8D43FDCE2040271763601D7F20408B6F287CB6EE0840CE16105A0FDF07405305A3923A91114001BD70E7C2281140E19BA6CF0E781540D905836BEEA80940A8E49CD8434B1140AF05BD3786600440AF5A99F04B0D16403DF372D87D070A40F6622827DA5500406E68CA4E3FA02040D93D7958A8751340098849B89047CA3F73637AC2128FE83FD7DD3CD52137F13FF183F3A963750E407F15E0BBCD3B1A40A67F492A538C0D40F29716F549D6234035289A07B0381F4047AF06280DB5E93F7B4CA4349B470D40C6C210397DBDF83FFC34EECD6FB8154027A3CA30EE06E13F54A86E2EFED61A40F295404AECEA184072A8DF85AD71214057410C74ED0BE93F840F255AF2081240B9AB5791D1810C4095D233BDC49817402D0B26FE28AA1B409032E202D0C817401A16A3AEB5D72140F775E09C11F51340EC33677DCAB92140126C5CFFAE6F174008910C39B6B620402B685A6265342140EB19C231CB5E0B400FD07D39B31DF03F10069E7B0FF70B40A8C4758C2B3E1A40B7291E17D522D83F4147AB5AD2D1E83F2655DB4DF0AD0540AE9E93DE37962240C634D3BD4EEACF3FDE8FDB2F9F6C184089981249F4822040E57FF277EFA8913FA2B5A2CD713E1040A5F8F884ECDC1A408AABCABE2B420540AF3E1EFAEED61040E9EDCF4543CE234038F3AB394030DB3F7C48F8DEDF501B40535BEA20AF071E40A852B3075A811740CD77F01307F005404FADBEBA2A002140ECDB4944F8771B40B4ACFBC742B4F43F5F61C1FD809721400D535BEA202FE13FA4A833F790F0C93FD2DF4BE1413B2040EA78CC4065EC1A4046D09849D44BF93FB7CF2A33A515124008E6E8F17BAB1940BBEF181EFBB9014053E8BCC62E51FA3F5F97E13FDD00FF3FB2D991EA3B7F1440A774B0FECF49234058C85C19549B1240761BD47E6BE70E40D25625917DB01640EF54C03DCF5F01409F20B1DD3DF01040CAA99D616A4B19409ECE15A584D82140EF3A1BF2CF0CEF3F48FB1F60AD6A22406B2C616D8C7D1440005471E31603234005A6D3BA0DEA1140126BF1290086F93F7A8B87F71CF81E404436902E362DE53F23111AC1C6451E406555849B8CAA004064CDC82077510140BF28417FA1F71640B309302C7FB62040B8AE9811DE1EFE3FFC8D76DCF03B1240ACE4637781721D403D635FB2F1C82340A08D5C37A56C2240FDF84B8BFAA4FA3FDFFAB0DEA815DD3FC780ECF5EECF084025085740A17E1C406B60AB048B43FC3F9CF86A4771CEFD3FF5F23B4D66BCF23F164B917C25E0144093516518772B2140CFDBD8EC48951F40CF6A813D26921040B7627FD93D790A40384888F205BD1040C0266BD443C415401615713AC9D61A40917C259012BB14403A5D16139B3F1F409430D3F6AF9C1140DB19A6B6D401F03F672AC423F1D2174086A92D75901717406E85B01A4B981C40FE47A643A76723407C7E18213C1AFB3FFDF7E0B54BAB2240C170AE61860609408CF4A276BF522240F4DF83D72E4D03405262D7F6763B1540D734EF3845D7124098C28366D74D23408D5F7825C9F30F40397B67B455F91940E338F06AB9E32040C619C39CA04D134026A60BB1FA23C23F4F05DCF3FCD918400A815CE2C8631340B1F7E28BF6A8224095B6B8C66772FA3FA33B889D2974DF3FF33D23111A012240D7A19A92AC331D40B3EBDE8AC45C2340637AC2120F880A407EC3448314BCF93F2E5393E00D09064032207BBDFB1B2340699082A7902BFB3FEE43DE72F5230B40E085ADD9CA4BDD3FCFC0C8CB9AF80040D7506A2FA2ED094086CABF96572EEB3F31992A1895D4FD3F51FA42C8793F0240ED647094BC6222403FA9F6E9780C1F405F9A22C0E99DF53F0BCF4BC5C62C1F40FA7E6ABC74E321407FC2D9AD6532C63FA2293BFDA00E064065E1EB6B5DEAF33F1901158E20E514407E8CB96B09B9FB3FFEF0F3DF83671C4003999D45EFD40B40AA0F24EF1C9A1F40BA490C022B07094052F2EA1C03621D409357E718907D02401B1021AE9C9D224039B709F7CADC234066FA25E2AD730F40A321E3512A410640815EB87361E40B404ED53DB2B90A1A40FC3905F9D948204050E1085229CE2340B91803EB380E134083FC6CE4BAB91E40F06DFAB31F691B40280EA0DFF76F0F4053B3075A81E92340AF5DDA70580A204014984EEB36281640A226FA7C94B921406614CB2DADD61040AF22A3039230F93F8481E7DEC3C51B407D259012BB36184027C0B0FCF936FE3F2BC3B81B443B1C4016A75A0BB3100A405FD0420246D70640F10F5B7A34D5E93FB1169F0260FCF73FDAAB8F87BE2B1440B37A87DBA1A10240B80721205FF21140622CD32F116F0740A5129ED0EBEF0340E6EB32FCA78B2040D2393FC5718020401E37FC6EBA351B400A2C802903071B400A83328D267723407BBB253960F70040D95F764F1E26174070D234289A571D40255D33F9661B0640683EE76ED70B1A40D7DEA7AAD02822409A232BBF0CA61C40C6504EB4ABE01A40739D465A2A7F1F40C9E4D4CE3015224062A2410A9E6210408D7DC9C6832DFA3FBE89213999181240E9995E622CD3E23F672B2FF99F2C1E4094861A85246B2140AB048BC3990F1E40CDCCCCCCCC5C1E401EE21FB6F468C03F7FD93D7958E80140D9EA724A40AC094037FA980F08940D409E62D520CC4D15406FBDA60705250B40672B2FF99F3CFA3F0536E7E099D008402CD670917B4A12402CF2EB87D820F43F8448861C5B6F0840E7374C3448292140C022BF7E888D1C404E2844C0218410403A7AFCDEA63FEB3FE23AC61517D7164097917A4FE534F13FC70E2A711DF31140008BFCFA2136E33FC19140834DFD0540E55FCB2BD7CB1340CD1DFD2FD7220C40BDE47FF2770F004096B20C71AC8BF23FC2DF2F664B3E2340CDAD105663C9F53F429770E82D5E1940B1C22D1F490921403A3B191C254F10402AC6F99B50102340BF9EAF592E9BFB3F098B8A389DA40840645DDC4603F8E03FDACBB6D3D648F83F0D36751E153F1F409AB4A9BA479E2140BEF561BD513B134080EF366F9C14E93FF2CF0CE2031B0240BF4868CBB9EC2340B03C484F9183F63FD0EFFB372FAE11408E5A61FA5EC3E03F12178046E9021C403F912749D7AC1240D8BCAAB35A200040459BE3DC267422407764AC36FFAFE43FFA08FCE1E77F2240EF01BA2F67962240AE2990D9597C21401749BBD1C74C1040954737C2A222E23F94C0E61C3CCB2040F12A6B9BE2711240880FECF82F10F53F17D86322A551234033897AC1A7391B40DA5548F949951440A796ADF5457215402460747973E81240D498107349D50F404ACE893DB47721408F8D40BCAE7F1140C9022670EB4E20409CDCEF5014981E400E828E56B54410400ABB287AE0231A4026FF93BF7B371F409EEFA7C64B37DC3F3A7AFCDEA67721403E93FDF334A0FE3FA0FD48111916FE3FCF68AB92C8BE1040C2F9D4B14AE91340E0D8B3E732E513405AF624B039C71640BCE9961DE21FF03F88F71C588E782340A5A0DB4B1AC30A40302DEA93DC21034094C2BCC799E61A40696E85B01A0BFE3F58E71890BD6E1740BC033C69E1D20B40FC54151A88C51C405DFE43FAED6B0E4056D28A6F28BC0B40240ED940BA181540999A046F480308407026A60BB10A15409E7E501729541A403562669FC768F93F7DE9EDCF45031640DDEEE53E39FA1840001AA54BFF021F402385B2F0F595094093C9A99D61CA02407767EDB60B4D0640800EF3E505B803403B8908FF2288014043739D465A6A00404A44F81741A30E40D522A298BC5118404E098849B850FE3F43209738F200F93FD2E0B6B6F0DC004056D636C5E32A234070D1C952EB0D1E407AFEB4519D8E0D40809A5AB6D6B70B407F315BB22ADA2340677DCA31599CF23F7C43E1B375B00E40C18EFF024100E13F9E7E501729540240252367614FBB0B403D7C9928428A08403AAFB14B548F0D4073BB97FBE428CC3F0281CEA44DF50040F5DA6CACC4FC06400BF148BC3C9DE03F66BCADF4DAFC184095490D6D00D61540D73043E389002340A5BC56427781214087156EF948CA0240B35F77BAF3341D40FA9B508880931B40EEEA556474C0F53F23A30392B00F0040EB6E9EEA909BDD3F255CC823B891C43F1A8865338784034011346612F582114093FFC9DFBD63FE3F1D3D7E6FD30F20407B6B60AB048BEF3FEEB1F4A10B2AF03F164B917C25C01F40E59997C3EEFBFE3FEFFE78AF5A590C400A664CC11A472140D2C5A695424005407BD976DA1A592140147B681F2BC81740B8C83D5DDDB1DA3FD63A71395EA11140A7583508730B1E409D2ADF3312E1FD3FE9995E622CF31040AEF36F97FD7A1E40BD361B2B31CFFA3FDD3F16A24390134097917A4FE59C2340CD3AE3FBE2D20C40768A5583305704407381CB63CD280B40A6B8AAECBBE2FC3F732EC555655F1F4051BCCADAA6B8134015FDA199274712409C16BCE82B680A40624B8FA67AF2F73F2D793C2D3F70C93F672618CE356C004016342DB1326A1A40DD26DC2BF3B616408E3C1059A42121407ADE8D0585410B4019E76F4221222140DBA4A2B1F677D33F295E656D53DC1B408B89CDC7B5411040B7D4415E0FE6F73FCFDC43C2F75E2040B763EAAEEC420540F4E159828C80D83F522CB7B41A5A2040494BE5ED0867F13F310A82C7B7571240B0389CF9D55C0340289EB30584561040F0F96184F0680040D9D0CDFE40591840CB65A3737E6A2140FE65F7E461A1F03F361FD7868A211B40271422E010A222404419AA622AFD2340BC067DE9ED4FFF3FFD32182312A51F40336E6AA0F91C0C4058CA32C4B1AEF03F9DA04D0E9F1418407C45B75ED3B310407B4D0F0A4A311740DA8D3EE6032206405A46EA3D95530440E43098BF42961B40FEBAD39D27BE1640C68B852172BA0A40E1D231E719FBDD3F488AC8B08A57084037A968ACFDED20401F4B1FBAA03EF63FD7DEA7AAD0C001401ADB6B41EFE523400586AC6EF5FC114070EA03C93BC7014076A4FACE2FCA05402176A6D0792D034043A9BD88B6830C40FAB9A1293B2D11406D91B41B7DCCDC3FAE8383BD89F11840FBE59315C3C520401F65C405A001224093399677D5931140DBE044F46BDB234063B5F97FD591F93FCAC2D7D7BAF4124012DC48D9223915404FE960FD9F630C401D71C806D2352240B14D2A1A6B2F1440F1F44A5986E81B40C5C9FD0E4541FC3FCADC7C23BAC71840E84B6F7F2ECA1D408B8D791D71880840DBDFD91EBD111040F2CEA10C55D10E4048895DDBDBED0A4069520ABABDD42140111C9771531323400B7E1B62BCE6C13F2AC93A1C5D251B403E3F8C101E6DE63F52448655BC41174083F8C08EFFC2F83FF5824F73F2521A4051FA42C879FF1E4040C05AB56BB2104040A374E95F12E23F88B9A46ABB9914405E656D533C2EDD3F0F98874CF9401840CEA623809B751A404FEB36A8FD160540BD6DA6423C120B40B5C2F4BD868005400C93A98251F91A402997C62FBC0214400893E2E313CA20402D98F8A3A833D53FEA58A5F44CAF024092EBA694D78A0B40DBFCBFEAC89109409032E202D0080040BB9866BAD7E92240DFF8DA334B621C407BF65CA626E12340950F41D5E8C52240A1681EC0227FFF3FFE0E45813E11F43F8E739B70AFFC1B40E38C614ED08600406FB72407EC6AF73F4640852348F51F40079964E42C2C0A40E7559DD502FB1340E4839ECDAAAF15406760E4654D042240CBBDC0AC5074234026E2ADF36FB721401D1CEC4D0CD91040C6866EF607722340A31EA2D11D040340B1DEA815A62F00409599D2FA5BF21A40FEB4519D0EA415404B8FA67A32FFA83FE525FF93BF332040008FA850DDCC1740A3957B8159C108404DA25EF0690E03404C546F0D6CD5FE3F73F1B73D4162C13F9544F6419685FE3F2174D0251CDA1440B51666A19D530640A2D0B2EE1FEB1A40E48409A359D9ED3F197442E8A0AB0840DFF94509FA8B1F40971AA19FA9371D406BD44334BA931D406211C30E63421840E140481630C10E40A83AE466B8111F40D6C8AEB48C841E40B1C05774EB351740B728B341269907407347FFCBB5E81340B83CD68C0C521340A60D87A581DF0B402C62D8614C7A0640EF37DA71C32F144045813E912749CB3FE814E46723770240C0AF9124087704400F0BB5A6796703400DE2033BFE0BF63FB804E09F52751740001AA54BFFF20740EBFCDB65BFF62140E6797077D62E0E406EF8DD74CBAE0540506EDBF7A82F1640768D96033D94FB3FB1868BDCD3B523404FCAA4863600094074435376FA410540812040868EFD0440CBBF9657AEA72240D6A9F23D2391074000C974E8F43C1B40D93D7958A835E33F70D05E7D3CFC21406B0C3A21744010406E8AC745B5782240041E1840F800124086FF740305062140BAA29410ACAA0040ADA6EB89AE2B0D405470784144EA0040B728B34126F91240AE10566309ABF03F33DFC14F1CB0154028603B18B14FDD3FB8AF03E78C302140E964A9F57E23EB3F9E4319AA62822140F607CA6DFB7E1C40DAFF006BD5DE18402E3BC43F6C5121406EA7AD11C1C822406891ED7C3F85114071546EA2963623408E90813CBB9C0540541A31B3CF83234039F2406491261940261B0FB6D8D523406E5166834C6A204002D53F8864C8813F8928266F80B90F408C3045B9342E1D4085EB51B81EA507400E9F7422C16412402AABE97AA26B1440C616821C94F820408066101FD8511340E883656CE8A6F03F139ED0EB4F32194097E315889EDC2140FA2AF9D85DB01340F3583332C87D19405070B1A2067313401092054CE0C621401EFB592C4532F83FCDACA580B4EF164043E55FCB2B171E40105839B4C85E22402DEDD45C6E301C40F870C971A774EC3FEFCB99ED0ABD0C404415FE0C6F56194085E97B0DC1911C40027E8D2441781C40B760A92EE03512407E737FF5B86FD23F72FA7ABE660918401CCEFC6A0E5004402E8ECA4DD4920D40AF9811DE1ED418402384471B478C1040FAD2DB9F8B860A40ACE4637781F21640D84AE82E89B3F73FBA2C26361FD71540AC5626FC52FF1A40AAEE91CD55531240C00303081F6A2340FB3C4679E6951B40B97020240B7819405F9B8D9598E718408449F1F109B90240B9E2E2A8DCE40140B0ABC95356F32140527DE717255814400E2DB29DEF971C405018946934590540AAB5300BEDEC104092CF2B9E7AA4F23F3DD2E0B6B670F33F89D349B6BAFC1F402BDCF29194F41240C93D5DDDB1282340C66D3480B778204083A44FABE8CF0C4048FDF50A0B66234003CFBD874B4E1640D7C1C1DEC410F83F20D26F5F07CE693F45F30016F9A519409F5A7D755520F63F075E2D776602F33F5BB4006DAB491D40FBE6FEEA711F1540D026874F3A192240218FE046CA362140E690D442C9A40E40B9A81611C50403404E0B5EF4154C2140D74B530438BD1A4045F5D6C05689F03F7A17EFC7ED370C40B493C151F2EAF53FD6E253008C27F63F7313B534B7F21640569C6A2DCCC22040B5FB5580EF6E20404030478FDF9B1F4073D9E89C9FC21C4043A9BD88B6E3E13F4912842BA0A01940C80C54C6BFEF0140B0E2546B61661440BC94BA641C9B234082E50819C8B3F03F9CA38E8EAB11EA3F6FBBD05CA7B104406E4F90D8EE4E19402367614F3B3C174057EE056685020B40B2834A5CC7E81040B1170AD80EE60540130EBDC5C37B164090BDDEFDF15EE43F2A3BFDA02E52DD3FFA0E7EE200EA20405930F1475167FC3FB53522180757F03F6E895C70063FFC3FF583BA48A16C1F4096E7C1DD59AB21401EC2F869DC232040FD3383F8C08EDE3FC6FA0626374AFF3FB3CD8DE909EB1340AAD6C22CB4B31240F583BA48A19C11407EE02A4F207C2240FFCA4A9352F00A40276A696E85300040ABB2EF8AE0D72140A52DAEF199042240C2120F289BE21D402E1B9DF3534C1B40348463963D412340598AE42B814414402AC76471FFA114407C4276DEC67620406118B0E42A16F63F632827DA55E80B40B77EFACF9A1F1B407573F1B73D492240AF5E454607C417407C0DC17119B7F83FBC57AD4CF80D2140772FF7C951800D40EA5BE67459CC194049B9FB1C1F6D074095EF1989D0281C40F58079C8940FB53FD07D39B35DE1FE3F7B1002F225940540E78A5242B0EAF13FE0BDA3C684281640554D10751F001E4075594C6C3E6EFB3FD52478431AD50E40575EF23FF98B1840B5C4CA68E4A314401B0E4B033FFA1440B9347EE1951418403411363CBD92F23F0FB743C362D40640DFA4695034CFFB3FE415889E94491740A25D85949FF41840732F302B14D120404FAE2990D9A916407250C24CDBBF1840AC1DC539EAD81A405E68AED3480B004016342DB132DA11401BBB44F5D6701240AF7D01BD70670F400F80B8AB57510E40950F41D5E80514402C7FBE2D586AF33F026729594E620E4003098A1F63AE154034F8FBC56CC9ED3FA79542209738F33FBA1457957D371340016A6AD95ADFEB3F6422A5D93C9E104009FCE1E7BF07BB3F2AAC545051152340E02C25CB49E81E404B1DE4F5603208403CDD79E239132040C18F6AD8EFB91D4049658A3908B222400135B56CADFF21405A2C45F295C0F63F5BB6D61709ED1A40D28C45D3D97914409B9141EE22CCEE3FBE69FAEC80EBAA3FA777F17EDC2E12400C5A48C0E8120E40960A2AAA7EF523409B75C6F7C58507401CF0F96184A01B40130F289B72052140205D6C5A2904DA3FB3614D6551180440B0C8AF1F6283DC3F34F279C553972040E21DE0490B77164001FC53AA4411224080B74082E26712409F1F46088FA61E40ED0E290648E4114035CF11F92E351940BB0B94145800D03FE38C614ED01E2240D122DBF97E8222407539252026B11F4070EB6E9EEA901740611C5C3AE63C0540013274ECA032154077D9AF3BDDE91140A91611C5E40DC03FE272BC02D12B214086CB2A6C06881B40DA20938C9C85F43FB056ED9A9056F53F73D53C47E43B1940D9CEF753E30D2040575C1C959BF81E404DA1F31ABB7C2340A81C93C5FD071640001E51A1BA591E40ED629AE95E470B406117450F7C1C1C40840EBA8443CF0540CA198A3BDE64F23F69739CDB843B0840E4BF401020131F4045F6419605831B402F6F0ED76ADF1240C4D155BABBBE1F40C8D3F20357B9F23FDFA63FFB9132114048FC8A355C041F40E40F069E7B2F0C40BAF59A1E14D400409F211CB3EC49D33FE481C8224D7C0740CF87670932029A3FA98427F4FADB2240382D78D1573820403B72A43330C21540514EB4AB906A234012F8C3CF7F8FFB3FEC1516DC0F78E03F0EA48B4D2B45F53FC07630629F101440C53BC093166E1E40A81ABD1AA074164034677DCA3159BC3F38842A357BA0EB3F0BF0DDE68DB3054081EA1F4432240C408527F4FA93F81C4026C3F17C06441E40EC87D860E18C204025085740A1DE0240AE11C138B8D40740E6AC4F39260B0040302AA913D0C4FF3F07B5DFDA89E210403B511212695BF23F69C6A2E9EC64C83F6ADE718A8E6421406495D233BDC41D40F0A65B76886F1940573F36C98FF8F03F753BFBCA83941340B43863981374F53FC7B8E2E2A8742040D5CC5A0A487BE63F8E75711B0DD823402638F581E44D1840DBA7E3310315EF3FAC1E300F99F2CD3F2174D0251CFAEF3F15C5ABAC6D7A1940EB1C03B2D79B01400A117008552AF63F014C1938A0A5DE3F446CB07092D61B4001857AFA08CC2240D2DF4BE141A31B40594E42E90BE10E404C6DA983BC5E12405EBBB4E1B03C224096218E75717323407E1EA33CF3520840E0F3C308E1F11140E7AA798EC8E71540FED5E3BED5BA1D406AA510C825562240A14D0E9F747223403811FDDAFA491540074147AB5AB223408DD0CFD4EB760440E2783E03EA1D1640E7C8CA2F836923409CDEC5FB71BBF33F3BDF4F8D971E14405F28603B18B1D83F984C158C4ABA154091B8C7D287CE08408A20CEC3094C0540C097C2836697F13FF7764B72C09E17407A1D71C806421140842C0B26FEB81640B58B69A67B8D2340CE716E13EE351840DA1B7C613255FA3F06F2ECF2AD1F16401348895DDBCB17400BF148BC3C9DE83F6E861BF0F961F73F4DD7135D172E1D4007EBFF1CE6AB084014048F6FEFFA0D40A7ECF483BAB8174041D7BE805E781C406C76A4FACE5F154098C28366D73D1340904946CEC22E1940F4C13236741B20402AA73D25E704F83F895DDBDB2D0907404BAFCDC64AE423402426A8E15B681940CE16105A0F9F0440C2A6CEA3E2DF2240984D8061F9FB21404FE78A5242D006404F965AEF375AFD3FD6389B8E005E2140CCEB884336701340ED612F14B05D0440A65EB7088C751340A6B8AAECBBC22340153AAFB14BE42040DAAED007CB581E40596E6935240E0140056D72F8A493FC3F6CB2463D4423E13FBADA8AFD65D70A400E4A9869FBB71A40BC0853944BE3E03FC59272F739962340DFA9807B9E1F0A4084D382177D85E13FD09D60FF75BE1B40CE33F6251B0FF53FDFC325C79DB21F403F541A31B31F20408FA9BBB20B06B33F5C04C6FA067610408C118942CB7A0C40389F3A5629CD17404DA1F31ABB240B400D52F01472051940C66D3480B740E53F16C26A2C61AD034001193A7650290D40349E08E23C2423400DC51D6FF2DBFD3FFBAF73D3669C01402DEDD45C6E30D73FEECEDA6D173A11403D9D2B4A09D11A40E7A7380EBC8A2340AE8383BD8921D73F054EB6813B40234023DDCF29C80F1340990D32C9C859D13F0186E5CFB7FD2340116E32AA0C331B40F9F719170E840340BFD53A7139B621409DF3531C077E1F4061FE0A992B4322402AE27492AD36224055FB743C66A00B40E69315C3D5411F407B1684F23E362040ABED26F8A669E33FB74604E3E012FB3FF4C308E1D1761B40BFF38B12F4F720403C50A73CBAF10C40BB0ED594649D1440A69D9ACB0D9E2240E1B37570B00719400A2FC1A90F24FB3F508BC1C3B46F144099D53BDC0ECDFB3F435376FA416D2340605B3FFD671D11403A77BB5E9A22F93F83BF5FCC969C1840CB2BD7DB660A1D40F913950D6B2A1240A1F831E6AED51540C07971E2AB3D0340ECA17DACE0B7074035CF11F92EA5CC3F62A06B5F402F1440D9CC21A98592F43FFA5FAE450BD0F93FE198654F02CB1F40B9A981E673EE1540D76A0F7BA180FE3F1668774831102140629E95B4E29320400745F30016590140DD60A8C30A871C40501894693439094040A6B5696C0F07403BA92F4B3BD50340D95DA0A4C022094017450F7C0CC61740185DDE1CAE651F4002124DA088B51B4003EACDA8F92AF23F03B00111E2EA1E4062122EE411DC0B4000C63368E89F20403B38D89B18D21840B29B19FD6838D03F6D58535914161040FF976BD102941A407364E597C19817405E83BEF4F6E7DA3FB4AA251DE560CC3F5DE2C80391751440685E0EBBEFE023405837DE1D190B0F4057CEDE196D55E13F268C6665FBA82140DF4E22C2BF5021405B069CA564C9214034677DCA31598C3FC91EA166482512407A5567B5C0362240459BE3DC26042040626534F279C5BB3F3FC6DCB584BC1F40906802452C121E4062BB7B80EE4BFB3FE97FB9162DC014405396218E75F10A4025EB7074953E1940AB764D486B8CFD3FEB8F300C58C21F4070287CB60EE620409D64ABCB29D123407E5358A9A0E20F402C634337FB1317407AA86DC328087E3F342E1C08C982F23F2BDCF29194841B408C497F2F856723406A334E435441114083E0F1ED5D431C4082FFAD64C73623401B4CC3F011A123404E0CC9C9C4AD1240E4839ECDAA2F1840BE6A65C22F251D40452DCDAD10160540C2887D022846FB3F49F59D5F94800B40569DD5027BCCF13FEF92382BA2A61B40C11BD2A8C0890D4005FBAF73D3E612403F027FF8F98F18400FF0A485CBCA23407C61325530FA2240CCECF318E5B91C40C45BE7DF2EDB0440F1475167EEC11C40240D6E6B0BAF1C40AE8218E8DA17E53F2FA4C343183FEE3F1684F23E8E66F43FFFE89B340D2A094017EFC7ED974FE13FFED478E92631D53FB1169F02600C22407CED992501CA0B40C4B2994352BB1A4088F546AD30DD0340C685032159C0EF3FA2EC2DE57C0921404643C6A354921F40A568E55E60962140CF12640454781E40D505BCCCB0310E403EEC8502B6A318408E03AF963B33F23FB2BAD573D2AB2340A646E867EAE51340F817416326B11F400533A6608DA318402E58AA0B78590D403106D671FCD01C408C82E0F1EDDD23405C7171546EA2AE3F1230BABC391C02405FB2F1608B7D19404A0D6D0036C00140A75CE15D2E62094044882B67EF4CF73FF2B22616F88A1140A41820D1048AED3F124BCADDE7C8114001A777F17E5C0F401F49490F431B19406077BAF3C41B2140FF5A5EB9DE36CB3FAED689CBF1A220403B8DB454DEC62040FA5E43705CA60040DCD440F339871540D94125AE63DCF33FA437DC476EAD2140C03FA54A94BDD43F62BA10AB3FA21E407E3B8908FF22D83FC79E3D97A909004000732D5A80F6FE3FCD5CE0F258B31B40DEB06D516603E83F4A26A77686F91C40AA0D4E44BF6622404774CFBA460B19403944DC9C4A460A40EB01F39029CF21401CEC4D0CC90910408AB0E1E995B2EA3F6CEC12D55B7B2240799109F835321540BCADF4DA6C0C15400AA1832EE1A01840628385933427204029B4ACFBC7D21240B2101D024752164026AC8DB1137E1340A46FD234289AC93F944BE3175E091A40F0517FBDC2421A408B6B7C26FB871D4022FFCC203EF00040AB2688BA0FD82040AE80423D7D741C404FEACBD24E8D1440B2666490BB680540D5E8D500A5011940DE550F98874CEE3F8466D7BD15090340EF6FD05E7D0C17403D7FDAA84E97174069705B5B789E1440548B8862F2862340F70489EDEE01F13F88687407B1E32240CD76853E58661F404FE960FD9FE30040C139234A7BA30A4030478FDFDB1420403BC8EBC1A4981340807F4A9528FB1C40A33B889D29DC2040A5F78DAF3DB3FD3F5DA626C11B720640670C738236F120405BCD3AE3FBA20040A0C37C7901F6CB3F527E52EDD3992040501C40BFEF0F2040E8DA17D00B1700403145B9347E61ED3F48DFA46950F41A400283A44FAB680540865451BCCA1A0F40861C5BCF10A6204074EFE192E34E0B40401878EE3DDCE63F651A4D2EC6C01840653733FAD1D00540AC1C5A643B5FF43F2D42B115342D0F40BD8A8C0E4862054080D4264EEEF7FA3F8509A359D93EDD3FC4CC3E8F516E19409DD5027B4C1416408CA19C685761F13FF38FBE49D3D02240D5B2B5BE48F81E4037001B1021AE14406D8C9DF0129C11403B014D840D7F1F40A92F4B3B35971C4008CDAE7B2B12CD3F2657B1F84D711C4068EC4B361E6CD13F1570CFF3A7FD1A40B071FDBB3E73F63F909E2287887B1840A08CF161F63214408B8BA37213B5DD3F19E76F4221E216408E942D9276831740672B2FF99FAC184009FEB7921D9BF53F21054F21570A02404E7ADFF8DA1317406B44300E2E3D2140C501F4FBFE6D004015C8EC2C7A67FA3FD1402C9B39E41C40259529E620680F40BABC395CAB2D1C40C7F65AD07BE3FB3F6404543882B41440696E85B01A6B0640C7629B5434E61A40B7CF2A33A5B5FA3F94A5D6FB8D36F83F53B131AF238E12408445459C4E2222403F70952710D60840BA2EFCE07C922240B03A72A433082040CFBF5DF6EB0E1C40BE141E34BBAE03407A7077D66EBBD83F91442FA358B621403D9AEAC9FCA32040FE43FAEDEBF82240A35BAFE941C12240A0A52BD8463CD83FA4C16D6DE1A1224058FE7C5BB0940140F3E49A02991D00404E44BFB67E5A1D40A1F2AFE5956BF83F9F3A56293DF31F40D124B1A4DC8D1F40AF40F4A44C3A1840B43D7AC37DE4FD3FB6300BED9C66E13F3AE63C635F72094013D731AEB8F8F03F0798F90E7E521240FBE8D495CFF2EB3F5E8429CAA5F118400C569C6A2DEC05400458E4D70F01204090A1630795781040D6E07D552E94024084F068E38875FE3F014EEFE2FD38F93FC0EC9E3C2C3C2040C51EDAC70A0E2140DE054A0A2C482340906802452C72224025ECDB494428134012DBDD03747F2140F06C8FDE709FF03F9A95ED43DE320D406F0ED76A0F3B1E409B58E02BBAB510409FE74F1BD589224093533BC3D4D6FE3FA795422097580B402FF7C95180E8FD3F322251685917074059F8FA5A979A0540F357C85C19B40340B2BAD573D25B0840446CB0709266F83F5073F22213F01F40BD73284355F422400BEC3191D28C0340B187F6B1825F19406B494739982D0C408A01124DA0B823401FD61BB5C2F4DB3F2B357BA01518CA3F60E97C7896E0FE3F0EBBEF181E332040E17F2BD9B19103405D4E098849B8E23FD09A1F7F6951F93F795C548B88321D409692E524947E1C404E97C5C4E6D31B40E1968FA4A46720404E2844C021F40B40E8F9D346759A144027BC04A73E18234095B88E71C5A51C4039B69E211C4B21401F477364E51711407C48F8DEDFB02240984EEB36A88D194055DD239BABD619409032E202D0880C40535DC0CB0CEB1D403BAB05F698C81E4052D32EA699162040EC8A19E1ED0114405F79909E2287E83F97E4805D4D9E0E4071C806D2C526F43F5D8AABCABEFB2240D06394675E262040A3ACDF4C4C471D401B2D077AA80D1C40C748F60835731D4022533E0455432340E8154F3DD2A01840D4EE5701BEDBCC3F282B86AB0320DF3F541EDD088B3A12408ACA863595C5F13F486E4DBA2D91F43F37177FDB13A4F43F94BE1072DEFF0240EA58A5F44C4F1E409C887E6DFD34F53FD68EE21C75F4F03F2733DE567ACD074037E2C96E66441A40394371C79B742240CA1B60E63BB81C406BB75D68AEF30D4059147651F43820409FE74F1BD569EF3F5CE333D93F5F23408B1A4CC3F0411C403AE8120EBD751240043C69E1B24A1C4079245E9ECE4510408D9C853DEDB0014024253D0CAD6E0140CE716E13EE95EA3FAE7FD767CEC223408E03AF963BB31F40AD33BE2F2E5512402D05A4FD0F30F13F6C770FD07DB9F03F30849CF7FFB1F43FECA353573E9B2340B07614E7A8931B40938B31B08E231740486C770FD0DD17403CF54883DB7222400FF0A485CB4A1540EA42ACFE08830540094E7D2079C70E40F4A8F8BF23DA1E40F3C81F0C3C77F93F0D501A6A14320740B1DD3D40F7F510404FAE2990D919084039268BFB8F0CF73F8D9AAF928FFD10406ABFB51325912240D3156C239E2CFD3F05A3923A01BD184025EA059FE6741440252026E142A62340F3203D450E710640A185048C2EEF0C404146408523781C40FE2955A2EC2DC13FB9DE3653217E204057790261A7282140F511F8C3CFA72040925B936E4BE4EA3F8A213999B855E63FCF8250DEC7311940433866D993782240F566D47C95BCF23FAD86C43D963ED63FEF906280443315407FDB1324B6DB084038F6ECB94C3D154026E0D74812B415403B51121269BB0A4024438EAD67881E4030D63730B951CC3FE84D452A8C5D1A4037FC6EBA65B71040F10EF0A4854BEC3FCD599F724CE61240406D54A703D9FF3F4FAC53E57BC6E03FF836FDD98FAC22405FCE6C57E8031340333674B33FE01B40CC26C0B0FCF9EF3F43E6CAA0DA582340E9BAF083F3291D408F34B8AD2D5C0E40B72407EC6AF210403B394371C79B164030134548DD8EF43F74620FED630516407DCC07043A632240FC5580EF368F19400306499F56E11740D9B3E7323509E63F8DD13AAA9AF0204006BAF605F4E22340FE47A643A7B71740BAA29410ACAAC13FDD3F16A243E0C83FCFF41263994E1740CA5356D3F5041240A837A3E6ABA4F53FB72407EC6A822140D0D556EC2FF32340EE96E4805D7D13409F0436E7E0391A409AD2FA5B02F00940A4DE5339EDD911402C7FBE2D58DA1440158F8B6A11C9204001FA7DFFE6A5034063B5F97FD5D10640C30DF8FC30620D40191F662FDBCE1F40B7ED7BD45F1720408BFED0CC93EBE03F09707A17EFFF21400C022B8716891A40859675FF580805409C6ED921FE21FE3F8CF84ECC7A710B401E6CB1DB677522403D98141F9F700A40BA1281EA1F4C2140A0A696ADF5B5184024624A24D1CBFD3F30B8E68EFE1710409C6A2DCC42C32340320400C79E3DDC3F0B28D4D347E0CF3F0F0EF6268624F13FFC1D8A027DA204408C2E6F0ED71A15406B0E10CCD1A3064049A12C7C7D3D1B409D12109370011B4017618A72695C0640EBE1CB4411A21B40BEBC00FBE84C23402905DD5ED298ED3FFF5A5EB9DEA613409CFA40F2CE211140C8073D9B55172240999F1B9AB253FF3F22FFCC203EF82140D00CE2033B2E1440C72B103D29031940C66E9F55666221401CEF8E8CD5460240A86DC328087E18404D4EED0C531BF63FC5FF1D51A1AA18400F0D8B51D7DAFF3FEDD808C4EBFAE73F1CB7989F1B1AEA3FB1524145D5EF0240F52B9D0FCF5A2240F22895F084DE1940DB87BCE5EA471240EC8A19E1EDC1144069E55E6056E8FC3FF6ED2422FC2B0340F62686E46462EF3F7BBB2539608F2240064CE0D6DDBC1640F5143944DC9C0C40AA99B51490B6F73F268FA7E5079E1C4048A98427F4EA124013EF004F5A781840055262D7F61609403F56F0DB108309407138F3AB39C0E13F18096D39972211409DBCC804FC3A2340503750E09D142040D15AD1E638AF2140789CA223B93C174096B377465BB51340435376FA414523403FC7478B33BE20403D2B69C537F40440E1F08288D4B4DA3F9CDB847B65BE044035B22B2D2325134094675E0EBB8F2240060E68E90AF61B40FFAECF9CF5090540AE9B525E2BE1FB3F3FE42D573F561840774CDD955DB0E43F5B07077B13D314409758198D7C062340EEE87FB916AD1540D76B7A50501A11401BF67B629D2220409949D40B3E0D13405B7C0A80F1BC1C400AD7A3703D722240FBB0DEA815E60540B64C86E3F96C2140CDAFE600C1EC1540FD4E93196F03214038C0CC77F0931E400F9D9E7763B9214094F6065F986C1D4080D591239D6118403332C85D84290740661536035C902240D7BFEB33677D03409B7631CD74EFF73FCBF3E0EEAC3D164069C6A2E9ECAC2040A4C4AEEDED96CA3F7714E7A8A3E31640CA87A06AF42AF13FB5FCC0559E101240EF6FD05E7D0C19402F8672A25D65014070E998F38C6D1C404E4700378B871F40A4FE7A8505572340A27DACE0B7810640158C4AEA04540B407172BF4351701B40BD715298F7B80E40B3D1393FC571CE3F200890A163E71D406283859334DF05402E1F49490FE31D402CD8463CD98D074097CADB114E6B0940E202D0285DDA16400B08AD872FA321407BBFD18E1BAE1E4094128255F5B2F63F0821205F4205E13F96986725AD5817408A56EE0566C5F63FC58CF0F62004D73FDC68006F81341B40AAEE91CD5533FD3FB35E0CE5441B0440CAA65CE15DBE1540CAC51858C7F1CB3F1E51A1BAB9281740BF4868CBB94410402041F163CC9DFD3F325871AAB5F00B4090A2CEDC439211409CC3B5DAC37E0240294014CC98F2114044F7AC6BB49CEF3F5CFFAECF9CF5194054724EECA1BDFC3F5265187783B814401BF33AE2904DFA3FCF328B506C450D405551BCCADAC6064056BC9179E4AF0740DB166536C82406401C96067E54E303402F14B01D8CB0224011397D3D5F6320409F02603C83C6FA3F7313B534B702F03F64E8D841256EF63F8BC22E8A1E882340AE450BD0B65A094066BFEE74E709E13FAED7F4A0A0D4FC3F45A165DD3FD61A4008ABB184B5110640B5519D0E64DD0140F853E3A59BC4903FC72C7B12D86C12401155F833BC8910402E58AA0B78A91540B345D26EF43922402A8F6E8445E50640E1F1ED5D831E1040685E0EBBEFB82140F14927124CE519407E18213CDA580C407F83F6EAE3A113408D96033DD436E53F57CF49EF1B7F194010CB660E492DDD3F45F295404A3C23403599F1B6D28B0840D2393FC571E0D53F0B7DB08C0D5DE13F242A543717FFE03F9432A9A10DD0174066118AADA0E917404548DDCEBE021A40219221C7D6930540C28A53AD85D9E13F12691B7FA2F2F33F1F115322895EF73FFFD0CC936BEA14404B75012F339C20401F9E25C808702040B7EC10FFB07D2140F419506F46CDEA3F27F911BF62AD0740C4B5DAC35E28DC3FBABA63B14DAAF03FB48F15FC362412408DEE2076A6802140058BC3995F4DF83FD87E32C687E91540D578E926318021409ED1562591BD1D40F2423A3C84611A400CAF2479AE6F0540A2EE0390DAC4D43F4DD7135D175623405FEFFE78AF5AC73F4D124BCADD071C40882D3D9AEA090C40033E3F8C10EE11409BA9108FC4BB1F4001F8A75489920F40A81DFE9AAC51B33FD8BAD408FD4CFF3FB456B439CE2DFF3FA114ADDC0BEC1840849A2155148F16403FE0810184EF1C4089B7CEBF5D761940DB1324B6BBC71840BC7A15191DE8234080F0A1444B862040AA9CF6949CD30540BE839F3880C6214028B7ED7BD41FF63FAF264F594D77214036CEA62380EB18401D1CEC4D0C91214033A7CB6262931D40399A232BBF0C0640FAB48AFED0EC19401ABFF04A92971B40279F1EDB32C822405E0EBBEF18DEF13F8B8BA37213B5D83FFEB8FDF2C92A1A40C2A2224E276918408D0A9C6C0377C63F564ACFF4123B2140BDC3EDD0B0081C4085950A2AAAFE164012F6ED2422FC1C400C5A48C0E8120240B82231410D1FFD3F2A6F47382D88184076DF313CF6FB224011C7BAB88D961440F11131259268114085B2F0F5B58E11405BECF6596526ED3F2CF3565D87CA21402B357BA015E81B40F5F411F8C3CF2340CA6C9049464EEF3FBBED42739DE61540B24813EF006F1A40D6E07D552EBC2340E56377819282E13F467A51BB5F650B40ED0BE8853B47194048A5D8D138041A40DFFAB0DEA8B50D407AE2395B40880440BB641C23D933184054FCDF1115AAD13FCB0F5CE509240A40E1D05B3CBCA7FA3F6953758F6CAE0F40C2DEC4909CFC22403352EFA99C861E405BEF37DA718B21403F1A4E999BA72040B7D4415E0FB61D401361C3D32BFD2340C59107228B34F83F0D6E6B0BCF0B1A40983270404B1704408D47A98427141B40DD5B9198A0260B40F624B0390797234039471D1D5723C73F5A626534F279F33F8333F8FBC5742140EF39B01C214B20401A3048FAB44AF53F9A5C8C81753421402219726C3D430340406CE9D154CFE03F6E32AA0CE3DE134001C0B167CF050B40931804560E1D2040321CCF67401D1140302AA913D054194082E15CC30CED23400E1478279F3E13409E5C5320B35B21402769FE98D6B61C40B55373B9C1C022409B1BD3139678F53FC7D8092FC14917401230BABC395CB33FCE001764CBF20840FBB2B4537369194090F7AA95097F21406954E0641BB8C93F61E124CD1F931B4056815A0C1E461A40AA2B9FE579D82140454B1E4FCB7F1B404FC939B187960E40D40AD3F71AA22240807EDFBF79310640AC376A85E9EB1C402A1A6B7F677BD53F3D9AEAC9FCA30D406BD44334BAAB2340362383DC45981A40F4C308E1D1C6DD3F80492A53CC010B40ADA1D45E445B0C40D5E940D6538B0A4020F12BD670910C40AF433525599F234071917BBABA230240D6FD63213A442240BBD573D2FBB610404582A966D6021540321EA5129E282040F110C64FE33E13402BF697DD933F23408CF84ECC7A411840F9669B1BD393E73F6DC83F3388BF21408657923CD7F7FB3FE659492BBE5120407D5A457F6856214080EECB99ED4A0140E2CCAFE600D1124039B709F7CAC42040DA37F7578FFB0F4061FE0A992BF31740AA9CF6949C93F23FF0694E5E64D21540586FD40AD36F21409E5E29CB10670740BA2C26361F571A401E6CB1DB6795F43F16DF50F86C3D02403CBEBD6BD0471840A79201A08ACB174033F9669B1B131E407E3B8908FFE2F33FD8B628B341F6164012859675FFF81D402315C616821C22402E5393E00D290740BDE2A9471ACC1E4024D06053E7F121402A5778978BF82240FDBD141E347BF03FF92EA52E190F2240C1C8CB9A58F019405EBC1FB75FBEF23FE0F60489ED162340FFAECF9CF59120404D6A6803B0C1F53F61E3FA777DB61B400002D6AA5D731540DDB243FCC3DE224056629E95B482224097917A4FE5B4EC3F66DD3F16A2E32040D87E32C6879914409AD024B1A40C224069FF03AC55FB004049F25CDF8783D83F0394861A857C2340E90B21E7FD072140C80A7E1B620C1E40AB5B3D27BD7F134076E3DD91B15AEA3F0B444FCAA4E60E4086E8103812D81740DD41EC4CA10320401B6327BC04E70D4053927538BA6221404852D2C3D06AE13F7940D9942B3C0440ABED26F8A6490B40315BB22AC2CD234019AE0E80B85B12402E3A596ABD0F1140533E0455A3471B407D586FD40A53144038656EBE11FD0340B62BF4C132061F4008043A933695114002840F255AD2194078279F1EDBB21240E1421EC18DB40A4054E6E61BD19D1E40B4E908E066311740608F899466B3194067D311C0CD721140895E46B1DCD2EB3F42EE224C51EE0F400B0E2F88488D0540BB641C23D943164000FF942A513609408864C8B1F50C20401C5C3AE63CA3FE3FBC7A15191D80204071E6577380802140802DAF5C6F9BA13F8237A45181A316403543AA285E551A405AD93EE42D57E73F09FD4CBD6ED10D4093FE5E0A0F9A2040CFF57D38481023408E57207A52B61240FBB0DEA81526ED3FF8DEDFA0BDAA1E40406A1327F7BBF73F392A37514B73F83F83F6EAE3A14F0E40FE8172DBBEC71740F910548D5E9D1840D23AAA9A206AEB3F05A568E55E601540FA449E245D3B214093C7D3F203D7FE3FC009850838841B40882CD2C43BF0104097E315889E541A403065E08096AEF83F30D978B0C56EDE3F003961C268B6154014AE47E17A0410402D0ABB287AF82040782975C93806F13F68E7340BB4BB1F40726C3D4338561A40F295404AECEA1340838AAA5FE92C1140AFEB17EC86ED13401557957D573414405BB39597FC0F06401E15FF77449513403929CC7B9CB914400971E5EC9D41224012178046E9D22240B4CC22145B41B73FCEC64ACCB35203407769C36169201040A05225CADE321E40EA3D95D39ECA214004711E4E604A164071E481C8224D0440BCB0355B79C9D33F4087F9F202CC1D401EA33CF372D8104048895DDBDB5D10405891D10149D8973F0EF3E505D81F2140D8EF8975AAEC2240F65FE7A6CD38F43F2E8F3523838C214038A1100187101A40C70E2A711DE3F63F62A3ACDF4CDC1D40448B6CE7FB8901402DD0EE906200F33FD5CF9B8A5418C53FB24AE9995E321D403F56F0DB100317403C6C22331778F63F596E693524CE0B401EDC9DB5DB8E1440B5C6A01342C71640DB166536C8741140BA111615711A184087E0B88C9B1AFF3F8BFB8F4C872E1940B89388F02F2205403E062B4EB5261A402979758E01F90D40C8CD70033E9F0B4055C03DCF9FA62140494C50C3B79002400B2AAA7EA53B2040C345EEE9EAAE0F40C460FE0A99CB02409679ABAE432D2240F8544E7B4ABE1F40DA740470B3D81340E013EB54F9262040101FD8F15F401D409A43520B25530E40857CD0B359751A40D26D895C7086E03FCB0F5CE5091420400C76C3B64599D63F24D5777E51A21F40C231CB9E042E2240BC218D0A9CECFB3F8D5DA27A6BE0FE3FA243E048A0611A40459DB98784AF13407216F6B4C32722406B990CC7F3390D400056478E7446FD3F4FCC7A31948310406E85B01A4B58F03F4FC939B187760C402368CC24EA65214076FEEDB25FF70340842BA0504FD7234028F4FA93F8DCE23F5F419AB1683AE43F0D8B51D7DA0B1F4059518369180E18404819710168F417401CCEFC6A0EC820404E5E64027E7D1040C80C54C6BF5F1440ACC95356D3052140C6C4E6E3DA900B405AF2785A7EC020402C64AE0CAAAD1740E2E5E95C51DA1E404C3448C15308F93FFBE59315C35511404F3DD2E0B6761C401EDC9DB5DBEEFF3FB4571F0F7D871C404D8237A4519120402B51F696725E1440A9143B1A877A0040022B8716D9A62240E674594C6CCE184002BC0512147F0C401092054CE0B611400397C79A914102400F2A711DE30AEB3F9AEFE0270E9010409561DC0DA2F50D406B11514CDED01440E695EB6D33051340F30357790289214055682096CDDC0D4030D63730B9E11E4013D21A834EF82340DB300A82C7F72240F0DE5163425C1B400135B56CAD5F19406FF25B74B2E418403A03232F6B721940A3CC0699640C22402104E44BA8401140D52137C30DF81C409B215514AF5208404C88B9A46AFB11401C5DA5BBEB0C014094FB1D8A024D22409D6516A1D8DA1F401DB0ABC953F620400BB8E7F9D33620402BFA43334F1E1040A4A99ECC3FDA1940A7785C548BA81140FA9CBB5D2F4DD33FFE0FB056ED322040D97BF1457B6C20405167EE21E16B14407A1D71C806D2E23F52B81E85EB211640942F68210123F43F6AA164726A870140AB77B81D1A16F93F44FCC3961E4D1B4024B891B245B20D40BC24CE8AA8A9184093C83EC8B2C00F40DC2C5E2C0C711F400CCC0A45BA8F154087890629788A11401C08C9022680134017467A51BB5FD23FC9C9C4AD82381B40B14D2A1A6B7FEC3F1F680586AC2E0F403CA2427573D101401F49490F437B1140BDE0D39CBCF81840A0A86C58533903405F0B7A6F0CE116404F3C670B086DFE3F03EFE4D3634B23409B8D959867351C408313D1AFAD7F124008944DB9C2FB1F40F7E6374C34880F4054ABAFAE0A041940EBE1CB4411D2FF3FE10D6954E0A41140529E7939ECFE014017EFC7ED97CF1E40F0A31AF67BD213406DAAEE91CDF51440C44142942F38144057B3CEF8BEE02140BC581822A78F11402D978DCEF929C23F01DF6DDE38A123403FADA23F34330D40BA68C878941A1740D13E56F0DBB004405DFB027AE10E1B4093C5FD47A65B2240E833A0DE8C5AFB3FF04DD367073C084007978E39CFD8D83F929735B1C017FE3FD46531B1F9681340EEEC2B0FD2D308405AF44E05DC730940679AB0FD644C1440DB5207793D581940580394861AD51440FA08FCE1E7FFF33FE97E4E417E161B40E5284014CC48134038F8C264AAE01F40B2D5E594802814409947FE60E039F63F7D23BA675DB31F408ACDC7B5A1820840102043C70EEA2140657094BC3A671C406495D233BDA40F408751103CBEAD22407F677BF4864B22407C9A931799201C405F0D501A6A6410403B730F09DF4B1C40020CCB9F6FCBF93FEF1CCA5015A31740A515DF50F8EC0B4004E8F7FD9B27204001F9122A384C1A4041649126DEA11540AA622AFD8433114055C2137AFDF12040C18F6AD8EFF91240BEDBBC7152081A40C16F438CD7BC0B405F251FBB0BD41D40C0ED0912DBBD12404031B2648EE5F43FA5A14621C9FC21404148163081DB2240D9243FE257EC034041834D9D4785F93F1F10E84CDA441C400744882B671F10409CDD5A26C371E23F7E1CCD9195FF1F4099D711876C801E40D921FE614BAF1640C5C551B9891A0A40A43330F2B226CC3FE7FBA9F1D25D1240AA2A3410CB4619405680EF366F3C07407235B22B2D431740D48041D2A795134053E8BCC62E411E405F7D3CF4DD4D0C402D9622F94A20014064027E8D2401FB3FAB3FC230605121408C12F4177A441040747D1F0E12E202400A2FC1A90F840840A794D74AE8CE194009DE904605AE0540F0C000C287D2F73FAC1919E42E121840840D4FAF948520407F130A117088E43F1A4E999B6F041240FEF0F3DF83C7214092239D8191C72340490F43AB93A3124026378AAC35E4154067463F1A4ED92240FDFA213658A81840FAD346753A7010405DA626C11BF21F4063F19BC24A65104023861DC6A4BFED3F2AC423F1F2340640CD052E8F35A30E40BB44F5D6C056DD3FBA675DA3E5000240D1E638B709F7FF3F662D05A4FDEF044011A62897C6CF02409FAC18AE0EE01940F5673F52440615402D5C56613380F63F38BEF6CC92102240F9BCE2A9471AD03F255D33F9662B1540FE9C82FC6C4C2040D4D17135B26B0040E38920CEC3E91E40CEC4742156AF1D401AFA27B858D107409161156F640E15406616A1D80ABA21403E0455A357E313401215AA9B8B3FFB3F0ABDFE243ED71440C1E3DBBB063D0C40BE4A3E7617C823404D68925852EE08406B4AB20E47571F4086764EB3400B1E40B7EBA529029CF43F1CD0D2156CC31D4051C1E10511891E40B5E21B0A9F65224077F86BB2467D05407AE2395B4068D13F14ED2AA4FCA4C43F7F4C6BD3D8DEEA3FAC3AAB05F68816408CD651D50481134018EAB0C22D1FE53FAED85F764F1E563F2DB308C556D0F23FE3E13D0796432240DA3A38D89BB81940077DE9EDCFE51640BC77D49810E31140EACE13CFD902D53F1E3526C45CD2114094BE1072DEBF204008B0C8AF1F42144043041C42953A0A400BD462F0305D1B40D0D1AA967494E93FF5824F73F2121C4012312592E8E5FF3FEA245B5D4E6921405C57CC086FFF174003D0285DFA471540DBA2CC0699C41440BBEEAD484CB00E408EAED2DD75360E40E2CAD93BA3BD1140C30C8D278238FF3FB0AC3429051D1D40603AADDBA0561E400D198F52097F1A40D1B01875AD7D084022C5008926101540931ADA006C301B400D1AFA27B8781740228C9FC6BD7909407842AF3F897F1F40EAD0E97937A6114072193735D0FCF23F5B40683D7C392340E561A1D634DF1C40569A94826E1F1040FFEC478AC8F005409CC0745AB701014059DFC0E446B10F400DFFE9060ABCE93F583A1F9E25080D40BE4C142175BBF43F3FAC376A85C90440D5592DB0C7741140E8154F3DD2A00440A164726A6728104008E57D1CCDE118407D224F92AEF121401EC4CE143A6F114021CA17B490B02040C861307F85CCBD3F889FFF1EBCD61040BEA085048CEE09407F83F6EAE32107409817601F9D5A174088BEBB95253A1940EDD45C6E30C41D40B874CC79C62E17402E3883BF5F6420408200193A7650D33F2313F06B2409F93F0E661360589E0E40CFBC1C76DF19234067B45549641F0E40C47AA356989E0F40D923D40CA9C20D409031772D21DFFD3FA4FCA4DAA79B2340F9156BB8C87D0D408EAD6708C7D422405FD1ADD7F4701540F46A80D250C314405AD8D30E7F8D1D4086E28E37F9DD114024253D0CAD9E15409AD2FA5B02D0054039F2406491860F4054AD855968470840C520B07268D10C40C443183F8DDB0640D7A19A92ACD3234062F8889812A9194019E42EC214450F406B80D250A39001401AF7E6374C341B40876C205D6CEA1B40A587A1D5C9B91140F1BDBF417B7D23405456D3F544C7184082700514EA69EE3FFDBFEAC891AE1F40F6D03E56F05B11407A39ECBE63B800400A0F9A5DF7B61F400EA48B4D2BC5174035B401D880E807404162BB7B80CE1140CADC7C23BAE70440344C6DA9836C16401DB0ABC953EE204008B0C8AF1FD22240C0266BD44354044066A208A9DBC922403BDF4F8D976ED23F01BF469220FC1340FCABC77DABD511402DEC6987BFC62340A1D634EF38051D402AA8A8FA958E07406823D74D295F1740DC2A8881AE2D1640DDB5847CD0931540A30392B06FE723401DCBBBEA01B31740B2632310AF2BF63FDE21C50089BE21405A83F755B9201540529D0E643DB5D23F390EBC5AEEAC214087A3AB74773D15401E32E543503521402D776682E1FC0140BA1457957DF723406DE4BA29E5B51C40BC3D0801F9F20A403929CC7B9CB914406D1ADB6B412F1040FCFB8C0B0782F13F8D0DDDEC0FE41E40ACAC6D8AC76507401F813FFCFC172240AC8C463EAF3805405A9D9CA1B823F13F97E315889E8411405A68E7340B241D40D2E5CDE15A6DEF3F43E38920CEE303406EA296E656F81C40BA9EE8BAF04308405F7EA7C98C4F204042E8A04B38A4204018B0E42A167F0040253FE257ACE111403160C9552C9E0640E8A221E3518A004031EE06D15AB103400BEF7211DF6916405B5CE333D93FF23FD6E3BED53AC11D40AAD6C22CB48B23401FBB0B9414180E4005DD5ED2188D194009C6C1A5638E0A409010E50B5A88F93F7BC1A73979B1044035B742588DC51B401EA5129ED0EBDA3F85D1AC6C1F42164041F2CEA10C1D21409A999999999910403944DC9C4A861E403D2AFEEF880AD83FB187F6B1828F1A4096EB6D3315C21B40A2B437F8C27C2140772E8CF4A276E63F3E3DB665C0992340C1374D9F1DE01F403543AA285E65F23F1EE21FB6F4081B407EA99F3715F9134009151C5E10611A40BCE7C07284BC1640E90AB6114F760B40AFEE586C93EA0B403524EEB1F4B9204016A3AEB5F7512040107A36AB3EE720403E97A949F02607407764AC36FFAF1540F92F1004C8782340268DD13AAACA2240BA490C022B972340C24EB16A10562140882F134548ED1F4040BE840A0E2FCA3FC0266BD4434418404BCD1E6805A61840C91D3691992B0740717500C45D5D23408602B68311BB0940BC404981050023405073F22213B0FC3F64247B849A411C40FCA9F1D24D22FF3F25766D6FB7042140CFBBB1A030E817401EC18D942DD21B40AED3484BE5FD2240E9633E20D0D90D4021E527D53E6D1640D5777E51821E1F4032772D211F740640CB48BDA7729A1440C8B5A1629CEF2040C0417BF5F1D0F73F6FA0C03BF974F53F029A081B9EDEEA3F0FD6FF39CCA71C401D5A643BDF2722401633C2DB83201D406C0723F60920E73FC095ECD808640F404FE78A5242500F40DF196D5512390140DBC1887D02A80B4096986725AD581740581EA4A7C8411F401EA5129ED0EBDA3F3CA3AD4A222B1740A0FB7266BB421F4038DBDC989E101440102219726C7DF73F742497FF905E1C40C87DAB75E2421E408FC536A9684C1E40A41B615111A7EA3F44E048A0C1A6CC3F1C959BA8A5F91B403A92CB7F48BF2340C45E28603B781940A80183A44F2B1040B9A81611C5041E4046CEC29E7668224011E2CAD93B331D40F94CF6CFD300F93FF2B4FCC055AE134070EA03C93B771A40A4FACE2F4A901D404BB0389CF9950840F03504C7655CF93F7099D36531011840E5B512BA4BE21F402E39EE940E56EC3F386744696F082240B0389CF9D57C1240A2410A9E42AE0240A86DC328081E174077A1B94E234D184087A2409FC813EE3F2F8A1EF818EC0840BA675DA3E5A019403E3F8C101E6DDF3F2C82FFAD64CF2040BC1FB75F3E1123401A18795913332040CCD3B9A29410CE3FF6B52E35429F0B40670E492D941423403D2B69C53774184034BF9A0304730A40C37FBA81022FF73FC66D3480B7E821403FA9F6E9785C1340274A42226D832140B51666A19D3304402A745E6397A8044088F546AD303DF33F9E5C5320B3A31C40BAF8DB9E20310C40E083D72E6D381840AF946588638D1340A2D288997D1E0D40772E8CF4A2E61F4071E6577380200E40F3565D876A8AF33FEFAB72A1F23F12405C7347FFCB15064037A968ACFDFD0140BB9D7DE5411A0540DA9255116EBA2340E620E868556B0D40E3FA777DE694234069AD68739C4B1640213A048E047A0840B61325219136F83F09A52F849C97194025ECDB4944E8184021E7FD7F9C98214089D349B6BA7C15401118EB1B986C1F40D6C56D3480B7D83FFC389A232BBFD33FF04E3E3DB605104057D11F9A7982164036CCD07822E810408ECA4DD4D2FC0140FF092E56D4D01D40880FECF82F001340A4FFE55AB42022409CA4F9635A9B064078279F1EDB721B40A9A44E40136107407D21E4BCFFCF014094861A8524231C400B42791F4773CE3FADA23F34F3741540CD1E680586F423403A419B1C3EA900409700FC53AA841640B80721205F1A2340F31E679AB00D1C40B5C2F4BD863820406DC83F3388472340BDDF68C70D8F1D40755776C1E0DAFE3F304AD05FE8412040BA2D910BCE401C4051853FC39BA51440603AADDBA046104033A5F5B704800C4037DE1D19ABCD0940703FE0810184F13F473CD9CD8C3EF83F9088299144EF2140FB3C4679E6650140F225547078C1F03F2AADBF2500DF15402EAD86C43D96E13F66F84F375020144080D6FCF84B8B1F40302E55698B7B1840A852B3075A41F93FA33CF372D8FDFB3F57EA5910CA1B15409599D2FA5BD21E407F87A2409FB8144034BA83D899221740B56E83DA6F4D1940A5660FB402B31E4099F5622827DAFA3F5B79C9FFE43F22403140A2091471F23F7CF0DAA50DDF2340C6A2E9EC64F0FD3F67B45549645F014069FCC22B495E19401BDA006C40C41C40390CE6AF90B120402CB7B41A12770540A6B73F170D790E400514EAE92370EA3FD447E00F3F1F0540DF4F8D976EE21B4030A182C30BB218400726378AACA51D40202922C32AFE0B4032207BBDFB53134080B56AD784540D40E9465854C4A922401DB0ABC953960840E92807B30990134064B0E2546BD112407024D06053CF2240C7B8E2E2A85C08408D62B9A5D5100E400A0F9A5DF7960140D8F335CB65731D400DFE7E315B120C4089997D1EA30C1B4014CB2DAD866411407B13437232F1F03F4F029B73F0CC17406F2F698CD6911240DDEEE53E399220401EC3633F8B452240605969520AFA22404CFDBCA9486507407BC03C64CA47F43F738236397C92F33FAB083719550E22400473F4F8BD3D1540F8A8BF5E61B11340E76ED74B5344F83F26378AAC3554F53F5FB7088CF5DD1540C11BD2A8C0C9E23FA8FFACF9F197074097FE25A94CD10340560C5707406C1D40DE58501894A9014024D3A1D3F3BE194080828B1535782040D3A3A99ECCCF1F4025B20FB22C681F401F300F99F2C92340B2834A5CC7C0204069E04735ECEF214079793A5794B2044012A0A696ADF5034082035ABA822D11409B3924B550720040E3FBE2529516024024624A24D1CBE33F97ADF545423B1D40207C28D19247FA3F9946938B3130EE3F7C293C68762D1340ADC090D5ADDEFE3F982F2FC03E7AF73F24B726DD9648194085CE6BEC12C510404051D9B0A68214407847C66AF3C72240C5E57805A267F83F95F1EF332EFC2240CE001764CB6A2240BD8BF7E3F6CB1C40D07CCEDDAE17E73F8B8D791D7148EC3FE78C28ED0D5E0440EFE714E467131640F792C6681D15F43F94A12AA6D24F883FAA471ADCD69E2040B6DAC35E284021404167D2A6EAFE0340890AD5CDC5DF1740A4C684984B8A11402D0ABB287A30224018EE5C18E92D204016342DB1326222405C902DCBD7E50940618DB3E908400E40143FC6DCB5040E409B73F04C68120D40BB438A01122D1A4078F2E9B12D5316406479573D60D6224029780AB9520F0D40CF1264045418184012A5BDC117E611406A8995D1C8071D40E75432005461134069FCC22B49562240EB3713D385A81040A435069D10FAFF3FC9E53FA4DFDE1F40904B1C7920F21040F1475167EEA11540F6402B3064F51440CC63CDC820E71B40F23FF9BB773C21402A6F47382DF8EA3FC87DAB75E2221B406B2C616D8C5D1240261B0FB6D80D1640B62E35423FE315404D9F1D705DF114402A1DACFF735810401DE90C8CBC2CFA3F293E3E213BCF1540DFA3FE7A85951C40ED461FF30181FF3FF56393FC888F1C40B41F2922C3FA1440062E8F35239311401D59F9653066024057B3CEF8BE78F43FA29A92ACC3F12240BB9866BAD7091B40124BCADDE7980240F183F3A963E51D401AA6B6D4411E04404A79AD84EE9200402AABE97AA20B20405436ACA92C8A0A400AF8359204D11C40D1B1834A5C171340842D76FBAC5A2040F25D4A5D323E2240AED7F4A0A0D4F03F7FBE2D58AA5B1B4012876C205DB42040EBABAB02B5B80B4054C6BFCFB870214012A27C410B09DC3F381268B0A9F32240C5CBD3B9A2C422405FD218ADA3EA1D40151BF33AE2909D3F31D0B52FA03F204082ACA7565FBD0B404F232D95B7A312408C497F2F85AF22406420CF2EDFDA0E406D020CCB9F6F1A4088A06AF46AC82140259012BBB6B7D83F861DC6A4BF4F21401BDA006C40840940C87C40A033892340B70DA320781C2340272EC72B10DD17405D88D51F61081A40D4B7CCE9B2981B40D8648D7A8846FD3FC0B4A84F72470040A5315A4755A31440CFF9298E031F1B40E7A8A3E36A0C21404A0856D5CB7723402E3BC43F6C090740A2D3F36E2C28E83F2D6002B7EE361740F9669B1BD3131740E25AED612F541240083A5AD5928E1740A320787C7BE71540BD18CA8976350740FD2FD7A205C80D4071581AF8518D154041B8020AF5740940427BF5F1D0D71D4047CCECF318E5094079AC1919E45E1740FA264D83A21920402B172AFF5AE62140D12346CF2D34F43F7427D87F9D7B0E40213CDA3862ADF33FB1524145D58F0640E144F46BEB671B40E0BDA3C684981340FB3BDBA337BC22404ED1915CFE231A4032923D42CD300640A1832EE1D03B0C4036C824236761B73F8BC6DADFD9DEF83F6A4DF38E53442340E8BE9CD9AE801540B515FBCBEEC9D53F7F33315D881502407F32C687D92B124023128596751F17405D88D51F61C8184011363CBD528612407FA4880CABF8EE3F317C444C897C224029D027F224E9EE3FC710001C7B36FB3F58E6ADBA0E2D214075779D0DF9A71540DD41EC4CA1F30240684293C492C21B40404CC2853C4205401F680586ACFE13409CA4F9635A1B07407AC2120F289BC23F5F27F565690F2140FD87F4DBD781D23F1E882CD2C4CB15407286E28E37391E40C8B260E28FA2FE3FD21C59F9659020406D1D1CEC4D6C2240BA30D28BDAFDF93F15E0BBCD1B471340B2BB40498105E63F679DF17D71A9C63FE63FA4DFBE862240087250C24CBB1040B3D0CE6916680F40FF3C0D18247DEB3F094E7D207907014098FC4FFEEEFD1740AC38D55A9875144031ED9BFBABC7C13FE4F4F57CCDE217406A4DF38E53441640F11131259208024040683D7C99002240C687D9CBB6D31440C3F0113125C21A4066321CCF679020401EE21FB6F4080A409BCB0D863A0C1E409354A69883A0DD3FEACBD24ECD2511404E0CC9C9C40D19404B3FE1ECD6FA2140043A933655271740399D64ABCBE915403C86C77E166B114061FD9FC37C691D40280F0BB5A6391C40CDC820771126E63FC74CA25EF069AE3FE08096AE60BB0E401C08C90226D00D40DC10E335AFCA1D40812381069B3A18400D535BEA20CF2140F295404AEC9AFB3FC5AEEDED96C41140E6CB0BB08F0E034003ECA35357CE1440C7A01342075D1340DA71C3EFA61BF93F92921E8656C71240B68311FB04701840988922A46E471240E90C8CBCACA9034070B20DDC81BAF03F7495EEAEB38103405A9C31CC096A1740A79196CADB11FD3F4BE7C3B304592240DD09F65FE7961840575BB1BFECAE10407FDAA84E07E21B40AB984A3FE1EC2040487023658BA4DF3FA913D044D870F93FA33F34F3E4022040255CC823B8910A40ADC3D155BABB08404818062CB94A21405E66D828EB170E4050FEEE1D3526B83FC6DCB5847C60194027DA5548F9791C404EF2237EC51AD33FA8DF85ADD98A1F40F7E5CC76853E1E40CBA145B6F32D1040DD94F25A096D16401F9E25C808B02240D0622992AF9C2240BF7CB262B8AA1440B8E68EFE972B194095F1EF332ECC1940AF40F4A44C4A014042EBE1CB44211C409EB12FD9786019403276C24B700A1D40F90FE9B7AF731F407592AD2EA73422400327DBC01DC81D404B5AF10D850F0940FE2C9622F9AA1B408272DBBE47DD1B405FB7088CF5AD0D4004AE2B66846717405017299485CF02406F10AD156D6E0A4027158DB5BFB30340F94ECC7A317C20401211FE45D0781740C59107228B34DD3F1D71C806D2C5FC3F2B137EA99F571340EFE53E390A482140CE4F711C78F500403EB48F15FC561840A1664815C51B1E400EF96706F10922406B0BCF4BC53622405F97E13FDDF01640CE6E2D93E1F8E63F41D3122BA30920402F6CCD565E920A40462234828DEBD03F30849CF7FFD92040B5E1B034F0E3FD3FC45A7C0A80F1DD3FE738B709F78222408BC1C3B46FAE0A40A29927D71458164025ADF886C267054027D87F9D9BC62040A7785C548BC02240AE9FFEB3E68703402219726C3D0B2140DD96C80567E02240BCEB6CC83F131E403B376DC669981940E9B6442E3803E73F9C1551137D6E1D40BA2EFCE07C0A1C4015FE0C6FD66019408D63247B847A02405E807D74EA0A0A402713B70A6260FC3F419DF2E84688174087DF4DB7ECD0164026FF93BF7B670540EECEDA6D17122140E962D34A21D820409D83674293A41D4020240B98C03D1E405298F738D39C23408639419B1C3ED33F3315E291781921404DC0AF9124C81640349D9D0C8E4214401406651A4DAE03406BBA9EE8BA0022409DF2E84658F41C40207EFE7BF0DA0040F6B6990AF148F73F7C7E18213CCA10404AB6BA9C12D01A405C77F35487BC10402F4E7CB5A3B8F23F2864E76D6CE618402C616D8C9D682340F699B33EE5C023406F8104C58F510E403123BC3D08611540CB9F6F0B96AA0340F0FB372F4EFCF43F5E0F26C5C727FD3F3695456117050C4036C8242367011A4062BB7B80EE23204065506D7022FAFE3FD921FE614B8FD93FB5A338471D0D2240344B02D4D4B2DF3F49145AD6FD031540F46E2C280C5A1C408BA8893E1F751B40198F52094F081B40E486DF4DB76CF33F39EE940ED6B721400AA2EE0390DAEA3F2C4487C091C01840DBA50D87A581FE3FFB9463B2B84F1540B62FA017EE9C1E4015E0BBCD1B1721403255302AA993064043FE99417C60124017F2086EA4BC1A40D255BABBCE061E40D0B7054B75211A405B5EB9DE36531140ABEB504D49360040E42EC214E5A22340371B2B31CFCAF63F3695456117250B40DD088B8A389DEF3F8E01D9EBDD9F154023DBF97E6AFC0A4053CBD6FA22992240D44334BA83B8074026529ACDE39016404C6F7F2E1AB2FB3FC4CDA9640028154011C5E40D30B30940DA740470B3F8F23F6CED7DAA0A1D1540253CA1D79FA42240C2340C1F11D30740D6027B4CA4340B40DD3F16A243E0C03FBC2363B5F92F22405182FE428F58F63FA1698995D1C8EA3FEDB60BCD7512224033E197FA795303409983A0A3558D0540058A58C4B0C3DE3F67463F1A4ED12140B69DB646045B23404033880FEC081C4098BF42E6CA80154011018750A516214058E71890BD5EF33FA0E238F06A691F406E8AC745B5E0214069520ABABDCC224030F2B22616980440F8713447564E1D40394371C79B3C1640B056ED9A90D60640651D8EAED25D134083DF8618AF091240A5F78DAF3DB31140EA04341136BC1040E355D636C59320401CEDB8E177931B404CAAB69BE0DB0F406403E962D34AD63F4EEE77280AB4F33FD7F9B7CB7E7D1E403C2D3F7095CF2140CA15DEE5226E1E40C763062AE3D723406EFC89CA8635FC3F7EE200FA7D7FED3F0281CEA44D85124039ED293927562240103E9468C9431D40691CEA7761BB1940F9F5436CB0F822406A183E22A67C21401A5245F12AAB0940CC5EB69DB60E22406153E751F17FD83F3C2D3F7095871C40950C0055DC9803401F8315A75AEB074064B14D2A1A432240698B6B7C26FBF83F40DB6AD6194F2040B6D617096DF9F43F00C5C8923946194002B7EEE6A9FE194011ACAA97DFA9F83F9C6C0377A09E1B4057CEDE196DC51440EBE6E26F7B721540B3B27DC85BA622405FB7088CF50D0240815D4D9EB25AFB3F7E6E68CA4EDF03407D76C075C5C42340D6E3BED53AF10140581B6327BC0C2240F931E6AE25641940982F2FC03E3AD73FA14ACD1E6805F23F1A34F44F702112400B0DC4B299A31340F2B5679604880540C138B874CCB9F03FC636A968AC3DF93FC1525DC0CBE42240640795B88EF10540CDCCCCCCCC042340849ECDAACF9519409A6038D73003234096404AECDADED63F325A475513D41D406F4562821A8E224012691B7FA252074040BD19355FA5F03FF5D555815A3C1140FE2C9622F9222240B7990AF148C42340611BF16437A3204010AE80423DFD2240632AFD84B3A32140145CACA8C1A4224032772D211FB408401781B1BE818914409C35785F957B1A401DE4F56052FCF03F14B1886187A11640FDDAFAE93F6BA63F2176A6D0796D0F40925ED4EE57C10240F44F70B1A2761240191C25AFCE792140F9F719170E0C20403448C153C8B50940710514EAE9331E40DF1B430070ACF23FCCEF3499F1261840B58828266F0019408AE3C0ABE50EF93F4981053065E00D4028B7ED7BD42F1A4048E2E5E95C51C03F4DF38E5374A411400B613596B046224091990B5C1E4B1740CD72D9E89C1F09407D586FD40A530F405CC823B89192014008CC43A67C08EE3F153944DC9C922240CF83BBB3766B2240151A88653327024000E5EFDE51131F4053E9279CDD1A0B403946B247A8391440AF7D01BD705F21409F1EDB32E0ECFF3F65DF15C1FF062040F1475167EE61FB3FA59F70766B391A409B374E0AF35E2240145B41D3123B1940034015376E7121400D350A496675E03F35D1E7A38C6816406803B00111521E40C1C8CB9A586821401AFB928D073B184029266F8099EFF63F658D7A8846B722405CE49EAEEEF82340BB6246787BF00D40DF88EE59D7082240B1DB679599320440F12C414640A5094025404D2D5B2B0440AED85F764F9E1C400A6AF816D63D1240FB95CE8767D91840BE4BA94BC65111408313D1AFAD5FF33FD4484BE5ED881C403DD2E0B6B6E0204072FA7ABE66F9084043AB93331437FA3F6458C51B99AF21403D9AEAC9FC13154032E884D041271D40346953758F0C1740F31C91EF52EA064069FD2D01F8670640323A2009FBC61F40287D21E4BC5F094092AF0452628713408FFAEB1516AC2340088ECBB8A9512040129F3BC1FEEBDB3F6ABE4A3E76271040C84109336D9F10401C98DC28B2261F40CCD1E3F736752040A5677A89B14CB33FE4BB94BA64EC1B40776A2E3718A221409A97C3EE3B060040F33CB83B6BD72140DFA4695034EF02403128D36872F118402367614F3B5C204073F56393FC2803400A849D62D520CC3FB493C151F27A204022A98592C90914403ACFD8976CEC2140D7187442E8A0E83FFFEBDCB41927F33F21CD58349D552140240C03965CE51140ED7DAA0A0D4412403B00E2AE5E351040809A5AB6D6170C40A24621C9AC7E0240E9B5D95889F90F4089981249F4421C4077103B53E814214012A0A696ADB5FB3F2235ED629A591840E129E44A3D3B1C40AB798EC87769F63F0306499F56710340AAF413CE6E0D024097E4805D4D1E0F406840BD19355FCF3FA1681EC0227FFA3F766EDA8CD3B00040CFD90242EBE1E43FBD72BD6DA642D53FB5C35F93351A1540F19BC24A05A5154037FA980F0874D83FA1DB4B1AA375F33FE7C2482F6A8712403255302AA9C31D4072FA7ABE662919402CEFAA07CC631B40E3E13D0796331940EF004F5AB8ACD13F0C957F2DAF4C1940D36872310616FF3FF0315871AAB5F83F11FFB0A547E32140A017EE5C18890440BD6F7CED995D2240D1AFAD9FFE432140FE9C82FC6C341040BED87BF1457B164057B439CE6DC2E33F25404D2D5B6BF83F2448A5D8D1282340DFE00B93A982A13F1711C5E40D101D40D40B3ECDC993204060AE450BD05622406649809A5A3604403C6A4C88B9442040FD169D2CB55EF43F98A59D9ACB4D0F40E20511A96917F93F6AA4A5F276C41140DDEC0F94DB1601404E29AF95D08D1C4076525F9676BA15407B884677103B1640D2191879597309406E8AC745B5502240EB19C231CB4E22406155BDFC4EE31840DFFDF15EB5D20240ED4960730E4E1140AB92C83EC88217403E03EACDA8191E40F7393E5A9C1118407E1D386744D91940EFCA2E185C93134017F4DE1802102140C8B260E28FE2F43FB7CF2A33A535F13F2B1895D40968F23F47E350BF0B9BF03F2EC72B103D791040554D10751F101140469737876B150140E2CAD93BA3EDF33F7F4FAC53E5BB1240139B8F6B43C5F13FB4AB90F293CA1D40EF53556820261140651BB803754A034005A4FD0FB0F60840CCECF318E5C12140F4FC69A33A1D1040CA6ABA9EE8BAB83F75594C6C3E0E1E40DD088B8A38C52040261AA4E029A4FB3F423F53AF5BF42340B0E595EB6DE31340965984622BA8094047AAEFFCA20C2340D200DE0209B22140B70A62A06BCF12405C3AE63C63DFFC3FC26A2C616DEC22408B53AD8559A82040B83D4162BB1B1540DC2A8881AE052040897AC1A739891C40378E588B4F01EE3F1AA54BFF9254F93F18062CB98A95204038F3AB39409012404C361E6CB12B2340C009850838641E40D447E00F3F0F1040613255302AC92240B8239C16BCA81940AD855968E7641040D427B9C3262A23402CB81FF0C0E00F40CE6F9868902A23401F84807C091511402881CD3978E61E409ACC785BE9F514401938A0A52BB81B40C093162EAB500E403BFBCA83F41408407D5EF1D4234D234059130B7C4547124040506EDBF7C02040AD3594DA8BE8E13FBF45274BADB7234055C03DCF9FB61E40444C89247A190340B22FD978B0C5BA3FA6D1E4620C4C1340AA0B789961A3F93FF6EFFACC59DF0B407BA35698BE571440514B732B84C520405DC5E237855506408BAA5FE97C3022401D91EF52EA121E40D3A0681EC0C217408925E5EE736C1B4056F5F23B4D3E214003ED0E2906280C40ED7E15E0BB652040A13193A817CC1940A88C7F9F71912240B151D66F26A6CD3FBDAAB35A603F1B40AD6C1FF296AB194010ECF82F10A41D40EBE0606F6288F73FAED51EF642E123406CEA3C2AFE1F1D40DBFB54151A48FE3FB16F2711E17F09403FE1ECD632990C4043C6A354C283144049BA66F2CDFE22407CB60E0EF626F63FF18288D4B4632040AF5FB01BB63D1A40E6E5B0FB8E4923401C78B5DC9949F73FBC92E4B9BE572340AF06280D358A1C40BBEEAD484CF0144049F59D5F9460F03FF33CB83B6B37F13F71E7C2482FEA1D4039B5334C6D29FC3F5DA8FC6B79F52240DC7F643A740A1F401F9F909DB75103401EC4CE143AAFD43FF5DA6CACC49C0740CBF27519FE53194012312592E86508406AD95A5F24341940F4F8BD4D7FF6F83FC26B97361C4E224038BBB54C864B2340A96C58535914A63FE607AEF2041A20409DBCC804FC9AF93F1B0DE02D90200440ED2DE57CB137FF3FD49AE61DA7680F4020CF2EDFFAB0F03F4087F9F202DC154096404AECDAFE1240FEB627486C370F4030134548DDCE8E3F645C717154EE0340554CA59F703621408066101FD8212340E90DF7915B231C4032E6AE25E4232340139D6516A1882340AD1402B9C4D11F40718DCF64FF3CFA3F22C66B5ED599F53FE8DB82A5BA80D33FE19A3BFA5FCE1B40A164726A6798EF3FDD4598A25CFA17400ABC934F8FEDE33F9488F02F82C609408940F50F2219C03F12FB04508C7C2140B9E177D32D9B1240AFB0E07EC0E3224023F77475C762EB3F5AF2785A7EE0D53F86E8103812E81140A1BB24CE8A480C40D2FBC6D79EF90B4064AC36FFAF6A13406E3480B74002E03F1A1A4F04717E0E40902DCBD765F8E93F1DAA29C93AEC1C409ED2C1FA3F070940C4E8B985AE440340F0A31AF67B421A40FB592C45F2D50C40F511F8C3CF2F1A40C993A46B267F05404B3CA06CCA15ED3F2FC1A90F24EFD63FB1A888D34936FA3F3C4ED1915C5E0340E29178793A17F23FDD0720B5898B22409A40118B18761E40C87C40A03369D23F268E3C1059D41C403EAE0D15E31C0340BE2EC37FBA81D63F5C3E92921EE60A40E5D3635B062C2040D7C22CB4734A1D40B5E0455F41BA1D40B9162D40DB2A0D405437177FDBC31F40569BFF571D4914402E5393E00D99194033A31F0DA77C1E40DFA815A6EFFD204036AB3E575BD11E40AB75E272BC522240CCB22781CDB900408BC3995FCD410040E38E37F92D0A1640A2410A9E427E1540BABDA4315AE706401D3BA8C4750C1540CEA623809B5515408177F2E9B1D523406478EC67B114F63FDB15FA6019AB1640DD5D6743FE99DA3FBB2BBB60704DEA3F1EA4A7C821820B4086E8103812381A404EB6813B505721403DB9A64066A7F23FC44142942FC80F4058AD4CF8A57E19404AEB6F09C0EF2140FC00A43671BA2140BEBF417BF5A11A40E82FF488D1330240EC3191D26C5E0C4058A835CD3B8E10409737876BB5B711404C8E3BA5833521403293A8177C8A1840D9EA724A40E4204040F850A225BF2240D52137C30D980E40CDCB61F71DE31C400A698D4127A4224065ABCB2901710040B77F65A549F912402C465D6BEF53034027F8A6E9B383E93FBD8DCD8E54DFC53F6745D4449FDF214071033E3F8C001040B4E908E06671E73F5E4A5D328E511A40BE30992A18CD204027C0B0FCF9960C40C85C19541B3C0140D7F7E120219A13401D39D21918691840F54A59863856E23FCE1ABCAFCA85C43F957F2DAF5CAF1C40CC272B86AB932240A663CE33F625F13F8658FD1186F12140F2ECF2AD0F4321409D2D20B41E7EF93FF1F5B52E35E211400229B16B7BFBF23FF5D555815A0C164075E4486760C4154010CCD1E3F736F83F2C0DFCA886BD01400D39B69E21EC2340B876A22424421D402F6B6281AFC80B40CCB73EAC370A0040EEEE01BA2F37204094BC3AC7803C12406A6803B00111E43F1EFB592C45C21040A5677A89B14C0140ABE80FCD3CB92340A94F72874D64F83F45BA9F5390CF1F40F9BCE2A947EA1740B2D5E59480B81F40B7EEE6A90E991B408CA2073E060B09409A0645F3006E2140CC7F48BF7D9DEE3FF5143944DCCC1040A9FA95CE87271540D6E6FF5547CEFA3F99F4F75278100440698B6B7C266B1240739F1C0588C2F73F2D060FD3BEE91D404DBD6E1118032240FBCA83F414E12140D8F2CAF5B699024091F0BDBF41FBF43FBF2B82FFADA40A400DA661F888F80B40223317B83C661E401AC1C6F5EF9A1F4001FC53AA44D90140109370218FE01D402D978DCEF969FB3FF4FA93F8DC691440317C444C89BC214084F57F0EF3351740E0BE0E9C333A2340DEE4B7E864791A40A94C31074147E63FD5592DB0C7040340E6B0FB8EE1910640D6A71C93C55D2140838593347FEC2240D0B87020246B1B40C6A2E9EC64C013409C6ED921FE311540BAA0BE654EF70440457F68E6C9B50540C710001C7BB613403599F1B6D2AB0B4000A8E2C62D761140815D4D9EB2FA11408126C286A757C03F9EB7B1D991EAFE3F37894160E5F00740C311A452EC68C03F58CA32C4B16EF73F9CC3B5DAC31E07409294F430B4BA0440DB334B02D4142340F2EF332E1C280940B939950C00F5154018CC5F2173CD21403F0114234BC60740D8B79388F05722403694DA8B680B1940965AEF37DA811A405A65A6B4FEA6164030815B77F3241540F7764B72C00E0F403D64CA87A06A214013B70A62A06BE73FDAACFA5C6DA51B4037C7B94DB8271C4008228B34F16E0440E3DF675C38300940D7C22CB473DAF33F679DF17D71A91F40DA38622D3E6D2240DF516342CCC50D400ADAE4F049C7224030DAE38574F0234029CDE671182C10408388D4B48B29044060AE450BD08619404A438D42928921408EACFC3218030440C9CC052E8F150340DB8827BB99D1E53FDE3B6A4C88A12240D32D3BC43FAC1A40BC5D2F4D114011406C088ECBB841214022E17B7F831E2340BC3B32569BFF0340A5A14621C9742140E2E995B20C71F13F761C3F541AA920408F8B6A1151EC1B40E08096AE6073224008CA6DFB1EB50440DAE6C6F484050240BCCADAA6787C0140E3512AE1091D1A403BC3D4963AA8214030B95164ADF12140BC033C69E182224001A1F5F065C21740B33F506EDBB70D405EDBDB2DC901E33F452E3883BF5F084071FF91E9D0292240C00303081F8A074069A9BC1DE1940640D102B4AD669DD73F566133C005990E40C4060B2769BE054077F86BB2465D144044C362D4B5160A4095B54DF1B8181A400F7F4DD6A8A71E40105839B4C8761D4092B1DAFCBF3A1D402E1C08C90266F53F5969520ABABD16405320B3B3E8E52240166EF9484ABAFC3FB77A4E7ADF081540088ECBB8A981D73F9FE925C6328D2340315BB22AC26D2340C0232A5437F70740F2B0506B9A1715407A56D28A6FF814402DD2C43BC0131440B96C74CE4F311940C8B260E28F22EB3F23F94A202576D23FF629C764710F14401EFB592C451206407192E68F69FD10401475E61E121E0B40B60E0EF626161A4098E0D40792570A40889E94490D5D164072FA7ABE6639FD3FEE27637C989D1140643E20D09924234069FE98D6A6B1F43FAD16D8632225F53F111956F146D6134050508A56EE151140C617EDF1426A1E408EE733A0DE1C13402104E44BA8D0114097361C96065E03407F6B274A42E2094009A69A594BF116408ECEF9298E03FF3F865AD3BCE314D13F737FF5B86F2D2140A6D425E318191A40ADDF4C4C17A20E40EBFCDB65BF9E1C40697407B1339D204093A8177C9A331C407636E49F19341C40DA006C4084D80140603DEE5BAD931C4097C45911353921404D31074147EBF43FE2900DA48B4D14409DA1B8E34DFEF93F8DD13AAA9A982140F96A47718EBA1040BA8102EFE40B204099107349D5C619404568041BD75F1F407A53910A63EB0240DD955D30B80E2240AA9D616A4BBD0240297B4B395F74204063F19BC24AA51940CC79C6BE6463E73F76E107E753E71140A2427573F1A71F40FDBD141E342320404B00FE2955E2074027309DD66D50FD3F2CB98AC56F0ACD3F48DDCEBEF250184081CEA44DD5BDE03F8FFE976BD1A21B4013B875374F75BC3F4F24986A660D12408AAE0B3F384F1740232D95B723742040A0C211A4527422401C2785798F73154053CF8250DE97144054C72AA5677AE83F01BD70E7C2D81B400A4D124BCA6D1640D5592DB0C7FC20401E6D1CB116FF20402121CA17B450F33F41D47D0052A320404E61A5828ADA1B409C1727BEDAF1204090662C9ACE3E134072C3EFA65BB6024027A25F5B3F5D1D407764AC36FF0F1F40B9C2BB5CC4370A40DBDC989EB0FC2340C367EBE0606FED3F1EDD088B8A081F40A3B1F677B6F71F40F84F3750E01DE83FED9DD15625B10C4029CE5147C7D5F33FEC67B114C9BF20407099D36531F10040EA78CC4065FC0C40A530EF71A6B9174066BFEE74E72907407A51BB5F05580C40F52F49658A79F43F6DAB59677C5F1F402250FD8348A61540AD8A709351951C404D4BAC8C460E114027F6D03E563008407E5704FF5B290B4002BB9A3C65C516403E247CEF6F300840B858518369E82140710514EAE9B31D400B7BDAE1AF3121404580D3BB783FF63FC59107228B74FF3FE02D90A0F871034055C1A8A44EC0F03F5395B6B8C667F33F3D5FB35C365A0940C381902C60420C40A93121E6928A0340E561A1D6344F0F40F86C1D1CEC4D0D40FBEAAA402D862040250516C094410B40BEDC274701721F406F9F55664ABB13409EB64604E3000A407767EDB60B0D0640AC3B16DBA4021E406971C63027D821407BA01518B2EA2040766F4562829A1A400953944BE3071240E48574780843154031992A1895641440062B4EB516C61540BABDA4315A8717400B2AAA7EA58B21409EEBFB709010F63F9563B2B8FF502340F20703CFBDC70A402B6EDC627E6E1240B1F9B836546C0F408D25AC8DB1631840A4C343183F4D1D40D4D7F335CBB51F40A79196CADB9106409E4143FF04371840295AB9179815B63F37548CF337E1114061527C7C4276F63F76DEC666470A14408E3D7B2E53330640FC170802648815404E44BFB67E9A2340AF93FAB2B4432340C74ACCB3922614409D8026C286AF2040765089EB187F2240FF092E56D4B012401C2785798FB3E23F63096B63EC04E83FBD8A8C0E48121640C4995FCD0182F13F2A38BC2022FD2040D00B772E8C74E33FA41820D1040A0540B1C1C2499A8F154071A94A5B5C63FB3FF99E91088D901140BB9866BAD749E33F5ABBED4273DDF63F8D0A9C6C03170640450F7C0C567C1340D1CE691668F7F63F79944A7842AF8F3FE8F527F1B9F30840C64FE3DEFC362040DD5F3DEE5B0D0D40AB2006BAF6A50640CC61F71DC3831B40BF0B5BB395370540F850A2258F67FE3FA1BAB9F8DBDEF93F68925852EEFEFB3F71C971A774100B4029E78BBD17D7224057B5A4A31C4C0B403CA06CCA15FE21401B13622EA9CA2140D74B5304383DFA3FDF6FB4E3865F0340AF06280D35FA18404BB1A371A8DF06407442E8A04BB80B40EFE2FDB8FDA211407F30F0DC7BD8024095D74AE82E691F40A60C1CD0D255F83F488787307E8A1040C878944A78C21C404D840D4FAF94E23F0725CCB4FD8B0E40E068C70DBFBB03405DF8C1F9D431124058ACE122F754184050A8A78FC0FF054034F44F70B12A2240DEC9A7C7B60C1240A2B437F8C2DC214087F9F202EC0B21408F72309B00C3F83F80457EFD10DB19400B9B012EC8D6F73F5E68AED3484BC33F9886E12362CAFD3FE0F60489EDAE1040E8BB5B59A25B234076A6D0798D2D1B405A626534F2291A405C1E6B46060917401DCA501553691D401F115322891EF03F77BCC96FD1C9F93FFE463B6EF8ED1C403483F8C08E5F1E40AA9A20EA3E40F83FCBF27519FE43124046D1031F8305134083DBDAC2F352C13F5B5EB9DE36031040C4EDD0B01835F93FB0CBF09F6E201440EBE6E26F7B4204406E52D158FBFBFA3FC4B46FEEAFFE1C40912749D74CDE1040C571E0D5722705404BE5ED08A7A51A40417DCB9C2EEB02405B5B785E2A861040F38FBE49D360F83FF1B73D41629B1A405CE84A04AA3FF23F1B0FB6D8ED3309407A71E2AB1D45E53F3049658A3908D33FB8CCE9B298581E40E69315C3D5A103403C889D2974DEF33FEDF2AD0FEB4D154079E75086AA98F63F53CBD6FA22111040E910381268201A408A1D8D43FD9E18401B81785DBFE0E03F344C6DA983BC23407AC5538F34281C4040BD19355F3510409DF3531C077E1140128942CBBAFF154074EACA67795E16406F62484E266E853F8D98D9E731622240755B22179C41F43F0514EAE923302040FCFD62B6647513401B118C834B2F20400E677E3507680940CE37A27BD6151D40D5B2B5BE4860224006A1BC8FA379FF3F9AEE75525F16F03F5393E00D69140F4071CADC7C23BA1B4099107349D54618409581035ABA020B404C6E14596B50224000750305DEF91740A5D8D138D4EF09401346B3B27DB810408C2C996379C71340BDC458A65FDA2040A06CCA15DEE50F40785E2A36E645224027F911BF628DF13FDF8AC404357CF23F083A5AD592C62240ACFE08C3801516400859164CFC611B40901150E10822214096B4E21B0AAF1440ABECBB22F87F204043739D465A1A2340779D0DF96706CF3FF22895F0847E0C40CF9F36AAD381C83F16359886E15316408D0E48C2BE3D094040FB912232DC1F40C0B167CF656ABE3FBFB9BF7ADC971C404C5299620EFA2140B16F2711E1CF2140802BD9B11188C33F7E569929AD3FF53FE6CDE15AEDE1014090A0F831E64E03401233FB3C46B91C406326512FF874FE3FD027F224E9DA1B401AA37554355112404260E5D022932340B131AF230E091F40EA23F0879F3F0040E04C4C176235FA3F99BC0166BE43F03FAF7D01BD70E7E83F4C50C3B7B0B62340FBCC599F726C10404ED53DB2B9EA0C40A089B0E1E9051D40689599D2FA5BCE3FAAEE91CD55232040962023A0C211F43F41BAD8B452C8FA3F74232C2AE2F40D403468E89FE0722240BC95253ACB3C224017F549EEB0F12340B89047702365D43F7A185A9D9C61F73F6CB41CE8A136F63FA530EF71A6591940BCB376DB8566F03FE23AC61517971440982F2FC03E622340CD3B4ED191842340E50B5A48C0B81340EFA99CF694BC08400F9D9E77638111402F87DD770C8F1440B9382A3751FB104086C954C1A87414404C8E3BA583B513407A8A1C226EAE0E40221807978EF12140C1745AB7418D2140EFC7ED974FC61E400798F90E7E82074011E335AFEADC1140FC36C478CDAB144082919735B1801B40522AE109BD7EEC3FA65EB7088C550E40399CF9D51C6022400E1478279F7E2040F209D9791BCB1240AA45443179131D40635FB2F1600B20400261A75835E81340ED48F59D5F6415408429CAA5F1AB0B40075DC2A1B778E53F363E93FDF3B40D4050E449D2358B20406397A8DE1A202140BDC5C37B0E1C154015C78157CBDD09407B4ACE893DC41640E86B96CB46A7FE3FFDBB3E73D60709404147AB5AD2711E40C15774EB35AD1D402DB308C55690FC3FD906EE409DF204409E98F56228771C4097C79A91412E0A404EB857E6AD4A1F406971C630273021400B42791F47EB2040F0DDE68D9382F73FF7CDFDD5E3BE23407B32FFE89BC41C40AE282504AB6AE03F2997C62FBC92F53FD7DB662AC4F32340AC376A85E93BF03F505436ACA92CB63F661536035CD01E40FC010F0C20EC1F40F12F82C64CD21C4032C7F2AE7AB01A40FB5C6DC5FE32E73F0667F0F78BB90B40E7FC14C781571B404C55DAE21A5F174033DDEBA4BE2CED3F064CE0D6DD3CFD3F7156444DF43912401F813FFCFC6F224015FE0C6FD65022403C6BB75D680E10403F389F3A56C90540EA95B20C716CF73F16DEE522BECB2240A0A52BD846DC1F40BAF3C473B6C00F4065DF15C1FFDE20404F58E20165F31540957CEC2E50721F40A04E797423ACF83F880D164ED27CEC3FB5FAEAAA40BD1440E083D72E6D38DC3FC61858C7F1031540C2D9AD65320422402713B70A62F020403485CE6BEC7206405FD3838252641A406EBF7CB2629814408A027D224FBA2240C66E9F55664A1140363E93FDF3B418404983DBDAC2F3F43FCC99ED0A7DA01940EF74E789E7AC17404D2D5BEB8B341D405E656D533CAEF83F5D6A847EA6EE12402E1F49490F831140E1B4E0455F41F03F3AE97DE36B4F0540338AE59656931B409DF17D71A96A05409752978C63842340D784B4C6A0131F404242942F68F114405BB22AC24D060D403065E080967623400CB1FA230CC3F53F2BC0779B37EE23405E66D828EBCF214023BC3D08015908409A22C0E95D1C1C405B9A5B21ACC6C23F0D1AFA27B89809401C5E10919A360D40300DC347C4042140299831056B0C1E404E603AADDB60144017F4DE1802C0FD3F0A302C7FBECD0940EA79371614261E408A9125732C8F1D404BB1A371A8DF08407CB8E4B8531A1A40C63368E89F001140A6F10BAF24A9134018B5FB5580EFD43F47AF06280D75FB3F5FD0420246A72040F69A1E1494221940FDFA213658980040E3A9471ADC760A40E411DC48D932204038F581E49DC317403E05C07806BD1340B11875ADBD7F1A409B046F48A3221940C5E3A25A445407407288B83995CCF63F5551BCCADA961440DD2406819543DD3FC72C7B12D8AC1B40535E2BA1BB141040F5DBD78173361040EA5BE67459CCE23F9C525E2BA1BBA43F757286E28EF71840E65DF58079F817405A63D009A1C320401327F73B14250C40A182C30B221210403198BF42E68AFB3F3B8E1F2A8D781A409561DC0DA2F50E40815EB873612405402463B5F97FD51E40F01472A59E85E03FA1F5F065A2D8224026529ACDE3B01C4017450F7C0CE6104044DD0720B5991A4096D1C8E715CFE03F317898F6CD1D0B406747AAEFFC8A2240649126DE011E0140EA23F0879FDF0B406902452C62281E4035B742588D25DF3FB85A272EC72BC43F365A0EF4505BE53F259012BBB67F22401409A69A59DB2340F2EB87D860111740317C444C8934204005A73E90BCC312409FE5797077D6B23FCF6A813D26520240CF85915ED48E11400C76C3B645591D40904C874ECF5B224092088D60E33A214019E59997C3EECB3F670B08AD87EF004018CC5F21736D23405706D50627A29F3F87FBC8AD491723407651F4C0C7A02340E658DE550FD8FB3FADBD4F55A1292240E88711C2A39D1340C32CB4739AF519403C32569BFF770840E12879758EB11F40D388997D1EC31E4023BBD232526FE33F13656F29E72B2340F7E978CC40351540CD77F0130750E73F0806103E942801402F19C748F6280140A4E194B9F9761B4069723106D6F1ED3F03D0285DFAD713406D1CB1169F121140630E828E5675114034F790F0BD5F13408BFCFA2136F815403563D17476622140849D62D520CCDD3F629F008A91351A409961A3ACDF14234082397AFCDE2621405396218E755107404CA4349BC7E92240344A97FE25090240D55B035B25584C3FED2DE57CB1D70F40850A0E2F884803408EE9094B3C1017403FAC376A85090E40616F62484EC61F405FED28CE5147184073BD6DA6429C0E40DC63E94317D4D63F0839EFFFE3841D403B8908FF223023400C5872158B1F06401A4D2EC6C0BAF33F3A2009FB76EA2140273108AC1CB22040A4DFBE0E9C43124053EA92718C040E40C83F33880F2C024034D593F9471F21402BC1E270E6B710409A0AF148BCCC1240CD936B0A64961440C7629B5434D6DE3F0169FF03AC550C40D3BEB9BF7ADC044034F790F0BDDF034067EF8CB62A290040FBE6FEEA711F1D4050ABE80FCD342240F78E1A13622EEF3F1CCEFC6A0E601740B3B3E89D0A38F93FA2B60DA320E82140CB64389ECFF017403FAC376A85312340B056ED9A9006154032056B9C4DD721409EB29AAE278A2040CE3637A6278C1040454772F90FA1214099B7EA3A54D311409225732CEFAA0440AB3DEC8502061C40F7B182DF863021409B90D61874C2EA3F5ABC5818224F2340CEFDD5E3BEE51840BF45274BADC71F40DBE044F46B5B1C4048C5FF1D51A11F40F01307D0EFFBD03FB1170AD80E46CE3FBFF38B12F4271840B4CA4C69FD2DA13F8B355CE49EDE1D40E527D53E1D8FA93F98C1189128940240A3772AE09E971B4043554CA59FF0EF3F838593347F8C0F404F57772CB6712340F06C8FDE70CF234053B4722F30BB1A40BE4BA94BC67110400261A75835C0224052D66F26A67320401C98DC28B2161140DA1F28B7ED5B204057CD7344BE4BE23F4B598638D61511404F3BFC3559931840DEAAEB504D290740AE0FEB8D5AE11B40CADC7C23BA071840D6FD63213A541F40842BA0504F17234086AA984A3F0112409C189293895BD83F6C04E275FD821B40E2395B40683DB83F09DD257156141A40BC40498105101440E9633E20D0F1214050C422861D361340D386C3D2C02F0B4007B13385CE0B1240F1F5B52E35020A40E75608ABB1041E40B3614D65511801406FBA6587F8F7114014984EEB3628E73F6B0F7BA1806D2040916456EF702B1140B900344A97FECF3F603E59315C5D0340B262B83A00421440959D7E501749114020B8CA13088B1240F73FC05AB5C3234052280B5F5F8B0A40868E1D54E2FA1E405F07CE19517A0E40C4EA8F300CF813408B6B7C26FBE72340BB2BBB60702D0A4071AE6186C67300402A73F38DE89EC33F5039268BFB2720405E82531F48FE21401D226E4E25030440E659492BBE010E40F73B1405FAC4EE3FB1E07EC003430640BAA3FFE55AB4E93F2009FB7612A11D40F7393E5A9CC11E407AABAE4335050E4002124DA088850A401D2098A3C7CF024012BD8C62B9A5E53FC289E8D7D6EF05409869FB5756FA02403BDF4F8D97FE1D40CAA65CE15D2EAA3FDEAB5626FC52F53F0454388254B221402F36AD1402C91F40F20A444FCA041640CB2C42B115940E40904B1C792032F53FF64201DBC1881B40D107CBD8D0FD1E40EDBC8DCD8E940040753DD175E1870940792288F370021B4062BD512B4C5F0F40D95C35CF1179FD3FD4BA0D6ABF752340C7D5C8AEB48CFE3F7689EAAD812D0B40397EA8346226F43F603DEE5BAD13DA3FE811A3E7163A0F407DEBC37AA356B03F3718EAB0C2ADF93FE6B2D1393FDD2340E25AED612FC41440C9C6832D764B214068757286E2A62140B439CE6DC25D0E400B7C45B75ED31140C6F99B508800E73FAD6EF59CF4EE11405A68E7340B34EC3F070B2769FED80B402766BD18CA492040663046240A1D1B4044F8174163761640CFA2772AE09ED13FB2D826158D7520403849F3C7B436FC3F97E5EB32FC67174051DEC7D11C7904402DB0C7444A73F63F0EBF9B6ED9911C40D7187442E8101540E3DEFC8689A60F40677BF486FBC8F63FF54A598638661F40882AFC19DEDC11400FB56D18056100404C361E6CB12B1F4023F8DF4A76DC1440A83462669F5721406F1283C0CAA103404A9BAA7B64F30A40CD1FD3DA3456114019AC38D55AD814407EFE7BF0DA15204095B54DF1B8981D408A3A730F095FE43F79909E228708F93F17B9A7AB3B16E93FBEBF417BF5311240E1D05B3CBC270A40A5A2B1F677861C4055A52DAEF199F93F2CBB6070CD3D1D40DA3C0E83F9FB154093E4B9BE0F07E33FDF4F8D976E922140300E2E1D731EE13FF8F9EFC16BB71D40BDC282FB01DF1240BD18CA897605154048F949B54F07FC3FBDC5C37B0ECC06404B3B35971B0CE83FE3E13D0796230F400C923EADA22F1E407C629D2ADF0310405DFDD8243F82004057B5A4A31CCCDB3FD49B51F355D21F40268C6665FB10E53F003CA24275B31140FEEDB25F779A124044520B2593631E404432E4D87A26214080F0A1444B3E19400F81238106EB1E40B58CD47B2AC7024002D4D4B2B5FE0E409F73B7EBA5890740C93CF207030F1B40064CE0D6DDFC1E40BEBC00FBE8D4C53F7C2C7DE882FA663F723271AB207610405C3AE63C63B72240FF3F4E9830DAFC3F2F6D382C0D3CF63FDC2A8881AEBD1240621399B9C0651C402DEC6987BF3619404260E5D0229BF63FBE4EEACBD2FE22406C5A2904722922400ADCBA9BA7BA0B4026C79DD2C17A0F4060EAE74D456AFE3F2C2B4D4A4117184071546EA296761C40C0E8F2E6706DFF3F78962023A0F21040F450DB8651101840B000A60C1C50E23F65C22FF5F3A6E83F6971C63027381B404DDC2A88812EFD3F321F10E84C3A1440E31A9FC9FE79F53FA9D898D7114722403C8386FE092E1240D34B8C65FA551B403F74417DCBBC0640058C2E6F0EB71E40A818E76F4221C63FEC14AB0661DE13405454FD4AE743FA3F0A14B18861F71140C6FA062637B2234069E55E6056F023408F554ACFF4A22040F241CF66D5C70540AB5D13D21A830C40E8F4BC1B0BAA19403A58FFE7301F0240DFE2E13D07D61F40A0E238F06AB9E63F950D6B2A8B02064029E8F692C6081B407E1EA33CF372A83F87FA5DD89A6DFF3FB84082E2C7180040758F6CAE9A9721402AFEEF880A7D2240A5F78DAF3D2316403866D993C03E2140B64B1B0E4B83054033A31F0DA74C0F4063B9A5D590782240E6B166649073234023F8DF4A76CC194091D09673290E0040D61EF642019B08400CCB9F6F0B861F40098D60E3FA2716402FA86F99D3A50C40999A046F48630F4099F221A81A752240A2293BFDA05621400B630B410E8A0D406E6C76A4FABE1140F67AF7C77BE51340CF2F4AD05FD811409EB5DB2E34DF2340266E15C44057164044DD0720B581234073672618CE351C40A8AAD0402C7B184015E0BBCD1BC704405FB532E1977AEC3F8A8EE4F21F92F63F18EC866D8B722340F7CDFDD5E3AE1C405C548B8862B20140AF777FBC576D0040245F09A4C41E1740CF876709322214401B84B9DDCB1D1940A070766B99EC06403C1570CFF3E7F53FB72572C1198C194069368FC3603E0E4015580053060E0E40287E8CB96BE90540BD72BD6DA6B21B409DD7D825AA970E40F486FBC8ADC90E40A7406667D13BEA3FB6A0F7C61030204031D28BDAFDBA174082AD122C0E271A40B119E0826C81224082C8224DBCC30D40F8FE06EDD5FF2040E3546B6116522240C269C18BBE421F40389F3A5629BDFA3F46D26EF431AF19401EC4CE143AEF0C4070ED444948B41D40D6E3BED53A31234021B0726891C52340662D05A4FD2F0240056C0723F659204085CE6BEC12D5A33F5ABDC3EDD070FC3F4E4354E1CFB0FD3F1C977153034DF33F90F9804067E21A40F98381E7DE630A409FE6E4452620F13F1B0E4B033F2A0D404AED45B41D7309403750E09D7CDA21404A07EBFF1C1E2240C72DE6E786A6EA3FD2AB014A43ED1040C2189128B42CED3F221ADD41ECCC0140C382FB010FBC1E409548A297512C973F1747E5266AE90140611C5C3AE60C1D404089CF9D607F21404F029B73F06C03407F4FAC53E5BB0D40D7F7E120214A0B40E560360186E511408F334DD87EF206400F7BA180ED3011403FE42D573FF60440562C7E5358690B4062122EE4112C1D40A5F3E159828C0640DD28B2D6509A23403C2F151BF38A16404276DEC666A71B4089450C3B8C091640103B53E8BCE622408928266F80F91040B66AD784B4461740B741EDB77622E33F78F17EDC7E0918409414580053D610400A4AD1CABD000A404F5DF92CCF83FF3FD89FC4E74E602240FF58880E81D31E4039B4C876BE6F20408811C2A38D030C40E3E313B2F3F6F13F075E2D7766D21240E65C8AABCA9E0440D481ACA756DF0C4011514CDE0093154082A8FB00A426154044696FF085791A407A8CF2CCCB61D73F21C84109334D08400C23BDA8DD3F18404D4EED0C53432140927538BA4AB70940A08B868C47090E40A5C0029832201040784485EAE6820C4031D3F6AFAC641140118AADA069991440A43330F2B2860C40923EADA23FB4E33FB55373B9C1D01E409C8A54185B48024068226C787AE5FD3F4417D4B7CC890740D9EDB3CA4C712240EE2422FC8B600A40295DFA97A4B2F23F33DE567A6D461C404F745DF8C15910403849F3C7B4E61C40948444DAC6F72040D4635B069C251F4059198D7C5E71E03F282CF180B229E03FB05417F03263124087A5811FD5F011403A03232F6BB21B40BEBF417BF571F03F15FE0C6FD6401C4074EFE192E34E993F2DB0C7444A5B2140399CF9D51CD0124070EA03C93BD71A40F0A485CB2A6CF13F9E978A8D799DE73F0740DCD5ABE81940C7BC8E3864A31740D235936FB60913401FF64201DB010440672B2FF99F442040EF8CB62A89BC1E407C9C69C2F693E63F4B3ACAC16CE202402BF702B342110E40335184D4EDECBF3F1A6F2BBD36FB0740C366800BB2451F40C8CEDBD8ECC822403F6EBF7CB2521740AB92C83EC8B2FC3FEC6B5D6A846E12406E68CA4E3F28F33F7A1C06F357C8DD3F1DAA29C93ADC0940DAE731CA33CF1940435376FA41DDF83FCD1E680586ECF73FA96BED7DAADA1A40B1169F02601C07409C8C2AC3B83B0F40A5DAA7E3312B21409758198D7CBE0B40AC0320EEEA9D214095D39E92738221400056478E745E2040D40CA9A27895EF3FB0743E3C4B50F03FB83F170D19FF1240158F8B6A11F11A40BF44BC75FE6DF33FE48233F8FB650C4080F277EFA8710D4079E8BB5B59E20B402BDA1CE736A1144072193735D03C1B407BBFD18E1B1E08407E52EDD3F138164076C3B645990DA23FAEF02E17F15D204085B69C4B7155C33F381092054C901E4059897956D2DA20407E022846964C1840B4E55C8AABCAD53FAC72A1F2AFED2040BF9CD9AED007FF3F21AD31E884D0913F1E1A16A3AE151440A053909F8D3C16400BD1217024D0F23F1B9C887E6DBD104014950D6B2A4B0D4054AD855968670140D34F38BBB50CF53F4CE3175E4972EE3F2FE065868D92054005A4FD0FB0F61E40F9D687F546AD0F40C2323674B38F164015E0BBCD1B271440363D2828456B0340E90DF7915B231E407CB60E0EF6861640FAB660A92E00004035D3BD4EEAA320404641F0F8F61E1E40F4FA93F8DCC91B405ED5592DB0670A405D6DC5FEB21B0F40ED815660C8AA0A4066BB421F2CC31C40F60B76C3B605FD3F6D75392520260540A1BB24CE8A28014027BEDA519C9320403F8C101E6D3C174029AF95D05D12DD3F7C60C77F81E01A404D840D4FAF74144077BAF3C473B61F404F779E78CE661840D6011077F52AC23F2D431CEBE276F93FEA3E00A94D5C1A40772CB649452B2340C1C41F459D79F33F889E94490D8D21405D4E098849D8084078431A1538D9ED3FB2BCAB1E300FCD3F46EBA86A82881B4057B439CE6D82F63F09FA0B3D6274FC3FEB1C03B2D7FBF23F2DD1596611922340670A9DD7D8A5E43FB972F6CE68FB23407E8B4E965ACF214099D9E731CA5301403C4CFBE6FE4A0740A8E2C62DE6F714408522DDCF29A80940D5264EEE776021408B5242B0AA9E194037C478CDABFA1D4082ACA7565F7D22400FBA84436FC12140EE08A7052F722340F3380CE6AFF00E402DD0EE906280C43FAED51EF642D11C4094BE1072DE2F204011381268B0C91440BABBCE86FCE31840C712D6C6D8290840914259F8FA5A18404834812216D10540A9A0A2EA579A0C40A208A9DBD9D7E23F2843554CA50F1540C763062AE3EF1E40CDAD105663891340F4DDAD2CD159E43FC89750C1E1C50040836A8313D15F1D40B7EC10FFB0251C40F6F065A208A91D404E4354E1CF60124010751F80D4CE21409BAF928FDD151740763579CA6A0A10401EC2F869DCDB2240F12F82C64CA216401EC18D942DE222400FD4298F6EA41F40A5846055BD3CF33F6939D0436D6B1A403B00E2AE5E1D234018CE35CCD0F8E93F5DA5BBEB6CB81E4062D7F6764B4220405628D2FD9C821340EA42ACFE085B2340938B31B08E531340350D8AE6012CED3FAE282504AB8A15401FF64201DB0923406D8FDE701FB90940228E75711B1D1E40AED7F4A0A07402405F09A4C4AEEDD43F92CCEA1D6E87E93FAA0CE36E102D2040FCFECD8B13DF0F40BA4A77D7D9300D4053245F09A4A40E408BA8893E1F452040C4B29943528BEB3FC6504EB4ABF00D40C57421567F8C20407442E8A04B38E13F1EF98381E70E1440865968E734CBF13F2B1895D409C02140116F9D7FBB0C2140E3A7716F7E43FB3FF05014E813D121401D8F19A88C7F6F3F51C1E1051101234071766B990CA70F40035C902DCB6713407217618A72112140FED7B969334EF93F9B5434D6FE2E1F40A3B08BA207DE0240371C96067E54D93F39D2191879F90840DAAED007CB58F13F6E4E250340151940630B410E4A580F407C0A80F10CBA024049F4328AE5F6054066F9BA0CFFE12340020EA14ACD5E1E40D6E07D552E14FC3FC13A8E1F2ABD1940734BAB2171CF2240946A9F8EC75C17401E51A1BAB9780F40A01B9AB2D3AF10409B8D959867E51B4028BB99D18F060A401669E21DE07922408527F4FA93D819405B40683D7CE91740265646239F371D40789B374E0A73ED3F399CF9D51C682340C1559E40D869F73F8179C8940FE10E4004029D499B6AF83FE3FC4D28446822401CB28174B1591040223999B8552021406EBE11DDB38E0F400A86730D33041D40D5928E72309BDD3FA7B05241456D2240A35BAFE941E10140417E3672DDD42040FB1F60ADDA6514408200193A76F00840E25CC30C8D572240402FDCB930C22040A67EDE54A482F93F1E87C1FC15920940CE88D2DEE0532040AE65321CCF571C409A5DF7562426F13F8AABCABE2B82DD3FF964C5707580FC3F7CB5A338471DD83FC896E5EB329C1C40FDA4DAA7E3F10240BA111615718223407A6F0C01C031FD3F50172994857F2040E15E99B7EADA1B40033FAA61BF271640F65CA626C13B1A40FE9C82FC6CE4E63F9D81919735E110407AAA436E861BE93FCEDDAE97A68021401CB4571F0F6D1A404ED026874F3A1340DEAF027CB7912040499D8026C286E03FBE840A0E2FE8234077871403249AD13FF017B325AB5222404FADBEBA2A102140B7973446EB48104021EA3E00A9ED1C40F25B74B2D4BA0F403E97A949F0B61040D74B530438BD13401B0DE02D90B01640632B685A62E51040A7406667D17B0D40069D103AE852F93FB9C3263273E11340C1525DC0CBEC2040DF1B430070EC194042E90B21E7852240DAE4F04927521A4083F755B950B900401FDB32E02C651A40ED629AE95EF71340CD76853E58860E4061FE0A992B731B400DFAD2DB9FAB12401B4AED45B41DED3FF4BF5C8B1660FC3FF303577902C10740956588635D8C18407A724D81CCDE1840A5BDC117262321408B8862F206C81040E5EFDE516372154089F02F82C68CF53F27A089B0E1890440C49448A297110540B11875ADBD8FF23F93E2E313B2731B4051D9B0A6B22816401E54E23AC695EB3FB3B5BE4868FB2140DBDD03745F6E07400612143FC65CEF3F36AD1402B944E53F2DE8BD310400E63F5891D10149780B40D7F84CF6CF730E40E509849D62A514409DF2E84658FC2340726DA818E74F0C40640795B88E0920400BD28C45D3B92340CBBF9657AEB79D3FFC389A232B6F16405C936E4BE482154080EF366F9C74204033C2DB831048214051BEA085049C234012178046E9D2FE3F3259DC7F643A1D40BF61A2410A6E1A4046EBA86A82F81F40C4D2C08F6A5820407522C154336BCD3F2AE44A3D0BB21240DB8827BB99D1D43F574277499C15F03F71E657738060ED3F6649809A5AF61440E55FCB2BD75BFA3FB309302C7FCE204040FCFCF7E0951140DCF3FC69A31A0E4014AFB2B629EE1A40AC6F6072A3E823408F334DD87E9215405401F73C7F3A0B408E0244C18C391440A8531EDD08B323403DD4B6611404C33FB950F9D7F26A224058C7F143A511E43F94A2957B81191E40FFAF3A72A4331640704221020EF11A406536C82423C71C40FF5C34643C6A1140B9162D40DBBA1640195932C7F2AE0440680932022A142140D57954FCDF312040938FDD054AD22040A9143B1A876A1940A08D5C37A544224038F3AB3940B0FF3FCA880B40A36C2140E12879758E312240D6A8876874D7204007EDD5C7437723405CE7DF2EFBB5084045B8C9A8320CE43F9E42AED4B3201940C51F459DB90723409B5434D6FECE13409FC728CFBCBC0440ED7E15E0BB75204021567F8461302240BFD2F9F02C4107405FD0420246D71F400FB56D1805C1B33F68E7340BB4AB1B4057CEDE196DB51640CC5F217365201040F4C1323674B300409B594B0169FFF13FFF7A8505F7E30540513239B533D423408CF84ECC7A711340A4DE5339ED490F407D59DAA9B9D4214040FB9122327C11405187156EF9481640670FB40243DE2140CCB73EAC371A21408D429259BDC3DA3FD3BCE3141D0911405F7D3CF4DD0D1240732D5A80B695F83FACE28DCC23AF1540ACE28DCC23D72140111B2C9CA4691440E4688EACFC920340C6E061DA378F21403E97A949F0C61C4001BF469220EC1C40CB2DAD86C42D224016DD7A4D0F5A2240813FFCFCF7E0DF3F80457EFD10A32340E57ADB4C85B8F03F2827DA5548C91B40DCD78173467C204088B9A46ABB291A404FCAA48636701240E54691B58612FE3F3ECA880B40430E404E098849B8E01C40B56FEEAF1E9701407D586FD40A3B2040E2C80391457A1B403C4F3C670B08D73FC7D5C8AEB43C1340AB05F69848D120400ABFD4CF9B3A1E403D9AEAC9FCF31740C30DF8FC30BA22408FA50F5D50872040861DC6A4BF97FF3FECF99AE5B2C11F4036CB65A373FE15405454FD4AE72B2040FBEB1516DCDF21402EABB019E0721E406BEF535568D01E40865451BCCA3A1C40431B800D887012406AF6402B3014204057B439CE6D020F405A457F68E6C90740DA1EBDE13E6214408DB3E908E07618405DFE43FAED7B22404ED2FC31ADAD0840876C205D6C5A1840FAD170CADC14214077F4BF5C8B5605401BF5108DEE800E40B6BB07E8BE5C034037E0F3C308C10940526342CC25550440C7F65AD07BB31140556B6116DAF917407DEA58A5F44CD63F0727A25F5B6F214069723106D6D111403291D26C1E271E40B4226AA2CF971C40F641960513172240F64201DBC1281E40F98381E7DE4B22408AAE0B3F38C720403999B85510830B400B60CAC0016D0340A1BDFA78E88B21402C103D2993FA2140A036AAD3816C1340D6A9F23D23212140787B1002F24522404C33DDEBA4BED03F34F790F0BD37224043209738F2E01D40465B9544F6210540AB402D060F23214023145B41D3D2164000C8091346F316409D2ADF3312010240A59F70766BA917405B5F24B4E52C1E40C61858C7F1931440E961687572060640022A1C412A8521401956F146E611EE3FB08D78B29B792240C9C7EE0225C5FB3F7C43E1B375E82140FDBCA94885D11940F4DDAD2CD1091240029EB47059651440CD94D6DF12301F4012859675FF38164006BCCCB051D6EB3F00016BD5AEC9FE3FEE3F321D3AFDF03F9DD5027B4CA40E405DFA97A432C5B43FA1BC8FA3399214408655BC9179E4E73F0569C6A2E92CFA3F8E03AF963B0B2340B1A206D3303C0D4006D9B27C5D2E2240B169A510C8451440787DE6AC4F39F73F3CA06CCA15BE0D40E353008C67301840BE33DAAA24A22340B760A92EE0E5E73FD1B01875ADBD0740C05E61C1FD001840787E5182FE82F33FCF49EF1B5F9B094088670932025A1D4018EE5C18E9052240E0BDA3C68498DF3F1BD99596919A0C403DD2E0B6B6F0184068226C787A05184068CEFA9463822340567E198C118919400A80F10C1A322240E04C4C1762B50C40D238D4EFC2F613403410CB660E392040960854FF20D214404B5B5CE333491940A8C5E061DAF70B40E78C28ED0DAE1540EF7211DF8959D53FB2A03028D3F021407C0A80F10C7A0940C154336B29401240F855B950F9C72340A64412BD8CE2E83F7BA4C16D6D711A4061FBC9181F8614400C570740DC150240CDAB3AAB05861C40C4E8B985AEA4104089618731E9CF2040DFDE35E84B6FD03F52EDD3F19881E73FE8887C975257FD3F7CF0DAA50D971740997FF44D9A46F53FFA804067D2A61F404FE960FD9FC3CE3F29931ADA002CFE3FB056ED9A90D60F40ABD1AB014AF31340DBDFD91EBD011340E25CC30C8D7F21403909A52F84BC1240A3C85A43A95D124070B20DDC81BA1140A41820D104EA0040AE0D15E3FC4D1940888043A8524321400D8B51D7DA3BF93FFAEDEBC0396314407E1D386744F913403883BF5FCC16E83F55336B29202D1D405E2F4D11E00414403A933655F7C8FD3F28637C98BDACF63F4721C9ACDE61F13F116E32AA0CA31940B68311FB04D014408B34F10EF0040540344C6DA9832C1C40AA0EB9196E201F400C941458008311409C6ED921FE011740C6DB4AAFCD46E03F683F5244864D2240E15F048D99941B405F251FBB0B140740CA349A5C8C911E40297AE063B0221140A1F831E6AE6D2340C51B9947FE400940124C35B396B21340C6C210397DBD234085D1AC6C1FCA2040CE548847E2FD2140A0E238F06AA913400DC68844A1951740441669E21D20F03F9816F549EE682240799274CDE4DB0640D47E6B274A7A23405917B7D1009E004030682101A38B0040A3CEDC43C2F7C03F950D6B2A8B421D40252367614F4B1E40191EFB592CA51F40552E54FEB5FC0940D7F7E120219A10408E23D6E253E0124049BDA772DA231140A680B4FF01A61C4062A2410A9E6220404E9CDCEF50D407409F8F32E202B003409947FE60E039084016A75A0BB3D82340FCFCF7E0B54BE93FB6BDDD921C801C40D313967840691A404ED2FC31AD7D2140F27B9BFEEC3712400A3197546DF7FB3F567E198C113923402E02637D03432240B98D06F016080E401ADF1797AAC42240171230BABC39DB3F5DFDD8243F321F407901F6D1A90B1640E97DE36BCF5C1540422619390B7B124063D009A183BE1E408786C5A86B9D14404371C79BFC5E2240815EB87361B4224079060DFD13BC19408867093202F22040193C4CFBE62E16402D27A1F48590DE3FB6F292FFC9DF0D40D9AF3BDD794216404D69FD2D01F8D73FBF2A172AFF5A8E3FE481C8224D5C06405EB9DE3653A923408E90813CBBE42340B2A03028D34814403A5CAB3DECB51440B1A547533D091B40A08CF161F61A20407E71A94A5B3C194024EF1CCA50751140B2BB404981A50D4067F3380CE69F1140A5C002983270FE3F8D0B0742B2001540614F3BFC35191740459DB98784EF1540CAA99D616AB32240C216BB7D56B12140B325AB22DC241440228D0A9C6CC30840E4DA5031CEFF0A401CB5C2F4BDDE2040A13193A8177C7A3FDEE522BE13431340CF9F36AAD341FE3FDEFFC70913060440C289E8D7D607224064778192028BF43F32207BBDFB3B21405854C4E924EB1C40F8DEDFA0BDBAF23FDDB243FCC3261440B42094F771D41240AF22A30392701040452E3883BFFF1440BBB88D06F0E619406747AAEFFCA2F13F3D80457EFD301B4018601F9DBA121240B05417F0326308404AD3A0681E201B40DE567A6D362612405D1ABFF04AD2FE3F0BEBC6BB2363C13F1D75745C8DEC1440DA1EBDE13E122340C4793881E9D40440D9942BBCCBC5114068925852EE7E16405051F52B9D372340F46DC1525DC0BF3F5891D10149380D40F2EB87D86011214067F3380CE6EF18403CD9CD8C7E042340A777F17EDC8621405AB741EDB7AE2240CF6740BD1935D13F1BF5108DEE5014404014CC9882359E3F25ECDB4944E81640C8D3F20357C12240DE5850189429F23F9BE5B2D1393FD73FFB1F60ADDA751C404E7ADFF8DA4322408B70935165B806400A647616BD8B2340F086342A70B2E53F6F63B323D5371A400D1AFA27B8A82240A96A82A8FB10154071AAB5300BED0D406C06B8205BD60940193DB7D09508943F7A1D71C8065220405C0531D0B52FCA3F30630AD638BB0D40200DA7CCCD37EE3F53758F6CAEDA2340E5B9BE0F074904402783A3E4D561234015AA9B8BBF2D234097AE601BF1E4EF3F83A10E2BDC32FD3FB3EF8AE07FAB09408255F5F23B4DBE3F041F8315A70222401C7C613255B0F23F78B306EFABB20840EF3845477259094001DE02098A3720405C3E92921E46FC3F8D7E349C32271A40C4B29943528B0B40C1E5B1666490FD3F265646239FD709406DAE9AE788CC1F4027D87F9D9B4E2140DBC01DA8531ED13F53793BC26961074047CB811E6ADBFA3F8CD7BCAAB3BA1040DA3C0E83F9EB004090149161150F0B4049F4328AE5360B40419FC893A4C321409BC8CC052E2F1B40129F3BC1FE8B10401EFCC401F4AB1C40F4160FEF39601E40DD7D8E8F16D716405322895E46B10040B5A50EF27A1010408C9DF0129C7AF63F07B29E5A7D8515402C0E677E3577104060C8EA56CFC9E63FD9B3E732352123406DE525FF930F1C4079CC4065FCFBDB3F16A6EF3504070240C7F65AD07BA3F03FEB56CF49EF23204044DD0720B5E90940164D672783131F40D2FBC6D79ED9164031B3CF6394E71D40C4B46FEEAFDEFE3F2159C0046E5DFB3FEEB089CC5CE0E33F9B030473F478F73F359A5C8C81F5F63F1B2B31CF4A6222405BEA20AF07C32240B6476FB88FDC7A3F8786C5A86B6D0940813E9127490F22400F0EF6268664E83F6EC328081E5FFD3FF46E2C280CCA1F4031ED9BFBABC7DA3FDA71C3EFA60B1A405B069CA564791740DA740470B3E81C401D8EAED2DDD501409E094D124B8AF63FC8258E3C10391C402DD15966112A1A402AE44A3D0B42FC3F13B70A62A08B0940266F8099EF482240D97BF1457BDC0A40EB7420EBA9D5124067614F3BFCB5E43F59A7CAF78CC417408A7780272DBC054074B33F506EFB0040B77A4E7ADFB8F83F70067FBF983D16403A4030478F3F09409604A8A9656B0E40AEF204C24EB1C43FFAD2DB9F8BC60640B60F79CBD56F1B40838769DFDC5F19406CCB80B3942CE33FDAA84E07B21E2340A568E55E604E2040A6D24F38BB251040944F8F6D19B820401E6B4606B9CBF13F48FB1F60ADDA13405CE333D93F6F1340E5B7E864A935184069C36169E0C7074077483140A209843F522CB7B41A221A40A22AA6D24FA81440C0081A3389FA0940A33B889D29F4024096B1A19BFD9120401B81785DBFC01E40EA07759142B122401CD31396785822405D6BEF5355F81F403ACFD8976C5C01406A4B1DE4F5A82140F9307BD976CA22408E23D6E253400240A0C6BDF90D5B2040BEC0AC50A49B0E4044DE72F563D3F33F7EE5417A8ADCF83F3A5AD5928E422240D1ADD7F4A0301C40041E1840F8101A406BEF535568E00940C51B9947FEA0204020425C397B0723408E8F16670C331340699082A7907B1F4076E272BC02611D40E1B88C9B1A680040D68C0C721721F13F52D2C3D0EA942240548F34B8AD4D0C405B423EE8D91C19400AA2EE0390FA21400951BEA08584E93F67BAD7497D391F40A5D8D138D4AF0B403CA06CCA152E12403561FBC918CF1D40EA76F6950729084062821ABE85952240245F09A4C48E0240FEEE1D3526040F404AB20E4757E9B23F3E062B4EB516A63F8ECD8E54DFE12340C7A01342075DBA3F47C7D5C8AECC23408BAA5FE97C78D73F3A782634490C1F40681F2BF86D2020405281936DE07E14408F72309B00C3E93F4A5D328E913C1240EED11BEE23271140FDD98F149161553FE8A38CB800A41340AC55BB26A48517403D484F9143841D40844BC79C678C1A4074982F2FC07E0C400934D8D479D4F73FD88349F1F1D91E403F00A94D9C1C0B40A56950340FE0E03FC9C6832D763B16403ACB2C42B17503407C629D2ADF130540D68EE21C75E41E40DC4AAFCDC63A1F404ED4D2DC0A01174066A032FE7D460A407AC6BE64E3A1114076FF58880E4123407FD93D79587818404BAFCDC64ACC03409ACE4E06477919408D7DC9C683DD19403E3DB665C049154024986A662D05FE3FC74961DEE37C1840E275FD82DD2022401CF0F96184301A403CF88903E8471940944BE3175EB92140C4E9245B5D0E0F405A4A9693503AF53F3C4A253CA17701403F0114234BA61840A3586E6935D41240AC527AA697180240B743C362D4F51E40A7AE7C96E7212140D93EE42D57BF20403C50A73CBAB1104026512FF834870C4077F700DD970B20404FAE2990D9391F401EFAEE5696B81E40F9BB77D49810CB3F38DA71C3EF6604404EEFE2FDB86D184001FA7DFFE645F13F3F52448655CC20401B47ACC5A7601C40FBAF73D3661CFB3F4EECA17DACE0E73F3CF54883DB0A1E40CA8AE1EA00280E4064E8D84125AEDE3F2BD9B111889710407EACE0B721C606401D91EF52EA221640C8258E3C10891840C231CB9E04760340FE277FF78E7A0240E23FDD4081E720401893FE5E0ABF1340F6D1A92B9FDD2340AD6C1FF296AB0640E10D6954E08406407D7555A016E30F40252191B6F1A70440A643A7E7DD180C403604C765DC3402401D59F96530C6034013807F4A95F81B40404CC2853CD2224082FDD7B969130440DD088B8A381D0D4026529ACDE330D83FB28174B169051E40EEEBC039231A144039EFFFE384E922401C295B24EDB62240B91B446B455B1F408AAF7614E7E813402AE27492ADEE2140240A2DEBFEB1234060CB2BD7DB961D4083A5BA8097590F40317A6EA12BB11D400E30F31DFC441D40488AC8B08AC71A40056C0723F6891640BB7CEBC37AFB234062156F641EF9F13F7F5017299485C73F0F5F268A90CA1840E010AAD4ECB11240D57ABFD18EDB10405F268A90BA7D0740185DDE1CAED5FD3F5ED5592DB0C7E13FF4DC42572220184080D6FCF84BBB1240C367EBE060EFF13F503A9160AA991040C85EEFFE78EF2340B6F63E558586ED3FE3A9471ADCD6D73F2A58E36C3A02D93FC4EC65DB69EB1C4036583849F3D71F404644317903BC1140BF2A172AFF4A1740C02154A9D9230E4012A3E716BA221A4015C9570229511340D00B772E8C140440BED87BF145FB14400C3D62F4DC921A40355EBA490CA21C40DC10E335AF4A09407E18213CDAF80A402634492C29B7034046239F573C151940A7AE7C96E7D121401A69A9BC1DE1084094A2957B81B91840EE21E17B7FA31640CA1649BBD1771D400056478E74E60340492C29779FE30E400CAF2479AEEF1040DAC9E02879F51C409544F6419605D43FE48409A359D9FB3F4BC972124A57204013B534B74258DB3F088ECBB8A9C11D40D865F84F3750DA3FDAE1AFC91A3D2340B9FC87F4DB971940E1D4079277FE104054742497FF10E83FB5A50EF27AF0FD3F4208C89750411B407D96E7C1DD99F73F45D7851F9C0F11409DF2E84658740B404F92AE997C331D40E71DA7E8486E09403B191C25AF5E2040C9022670EB1E20409609BFD4CFBB1F40E9297288B8191C404BAE62F19B021E4017BCE82B48B31B404B2025766D8F0F40E43098BF42260D4072C5C551B9B916402A1900AAB8D10040FFCA4A935230164061E28FA2CE5C0F409DF529C7642118408B6EBDA6075511400612143FC6442140A6B6D4415ECF0440B1868BDCD3551940E3FF8EA8501D064029CE5147C72D224050C763062A5B234006D671FC50E90740A6F27684D3A21540D673D2FBC657EF3F45F46BEBA77FEC3F9607E92972081E4033A5F5B704501B40E256410C746D0F40BE8575E3DDD118403DD7F7E12021BA3F978BF84ECC7A1240ED444948A47D1C40834C327216661E40A9328CBB41441E4058C85C1954AB1B4093DFA293A50E2140F7730AF2B309224028D53E1D8FF91C40A12DE7525CD519408E210038F60C1E40DFA9807B9EDF0840DDD1FF722D3A1840317BD976DA5A0C40FC54151A8825F03F707D586FD4DA14409AB67F65A5890740614F3BFC35E91840FCABC77DAB750D40ACFF73982F7F204058703FE081410940766B990CC7F31540710168942E7D1D407B9FAA42037920405DE15D2EE2DB1740410FB56D18FD214087156EF948B2214003B34291EE87224078465B954476FD3FBDC62E51BDF5084089EAAD81AD4A2240F0694E5E642A2140998235CEA6A304400DFE7E315B9202409A5C8C8175EC2140B80721205F021B40D2FE0758AB361440E36E10AD152D094088BB7A1519FD12402BD9B111885716405C5A0D897B5C12408CDCD3D51DCB2040B08F4E5DF9742240554CA59F70960E403E3DB665C0790040EB01F390299720407768588CBA56FB3F073F7100FD062240D653ABAFAE0AB83FFA635A9BC676EA3F3E03EACDA8F12040F86EF3C649C11E405F0D501A6A14CE3F89EFC4AC1703F33F5E83BEF4F647194094A12AA6D24F14402657B1F84D011C40B2BE81C98DC20340B7973446EBE8F83FC76647AAEF142140967840D994132040438EAD6708C7F43FC7F319506FA61C40A3AD4A22FB60FF3FA46DFC89CA261C40D93D7958A89508405281936DE0BE1840AF777FBC57AD0440560DC2DCEE65084098A25C1ABF5016406D003620420C1D407AFB73D190E1134026529ACDE3F0F03FAF5DDA7058BA1E4078F17EDC7EE12040E71A66683C21154003B4AD669DF1D83FB77F65A549E911401EA33CF37208104051F9D7F2CA5522404278B471C45A1F40AC36FFAF3A1A21402176A6D079BD1240B5A338471DD522400C23BDA8DD5F13402E3883BF5F1C2140D1CFD4EB1681FE3F207F69519F64064004745FCE6CF71B40641F645930F1B73F7313B534B7121840CC7B9C69C29E23403DD34B8C65FA0F40FFEC478AC8B023407217618A724900406C06B8205B261540E49EAEEE584C21400BD1217024601B400778D2C265350140994BAAB69B60EB3FCCD1E3F7361D0340FE65F7E461E12340BE6C3B6D8D00204066F6798CF2DC10405797530262721C4008556AF6401B1440AE2CD15966D1F53F682101A3CB9BFF3F161747E5266ACF3FD25625917DE01A40A585CB2A6CD61E402A1BD6541685F83FF566D47C956C1F40E0A128D02752134077BCC96FD189104061545227A0F9164008E6E8F17B5B1740FB20CB82895722404354E1CFF0A611401FF296AB1FDB21403239B5334C0D1C405F5FEB5223740540D1B2EE1F0B292040505260014CD90C405BB22AC24D46A53F3E03EACDA8B9F43F90DD054A0AC42240AC0320EEEA451F4044FB58C16FE30B40BABDA4315A871740228B34F10E9021406808C72C7B521440483657CD73C4E73F983446EBA86ADE3F6FA0C03BF9FC234055A181583673DC3F062E8F3523531F40ABEB504D49160E40B8770DFAD2DB2140CEFC6A0E102C0840FA635A9BC6360740390D51853FAB21403BC269C18B162040D21A834E081DE23F950B957F2D97234072193735D0FCEC3F5DC2A1B778980540656EBE11DD2B2340AE6186C61381FB3F23861DC6A43FFC3F011764CBF2051840618907944D29114044F9821612701F4012D90759169C17407500C45DBD6A21404832AB77B80D1D40662D05A4FD2F23406B4AB20E47EF2140B79BE09BA6CFED3FAFB48CD47B2AD23FAC8BDB6800CF1040E31A9FC9FE79CC3F7A51BB5F05F8B23FEE76BD3445801E4024809BC58BB51C4015FE0C6FD6E01A40E7E3DA50316E1040ECDD1FEF55AB094011381268B0A921404C7155D977351E408928266F80B91D40876EF607CAEDE53FA583F57F0E8318407B4ACE893D742040F7E6374C34602040C6FCDCD094DD1B400F9C33A2B46714409FE6E445268015406D1E87C1FC851340FF976BD102D40740CB14731074D41840F4FC69A33A1DB43F8202EFE4D3C31D404F779E78CED61340130CE71A66680B40F19F6EA0C03B11409DB98784EF9D2340EBC891CEC0A80140D384ED27637CBC3F61A8C30AB70C22401DC9E53FA44F204057B439CE6D7222409162804413D022404E469561DC452040F03504C765E420403E75AC527A461B40645930F147C11040B933130CE71A16403BDF4F8D976E104039B69E211C2B2140D942908312F61040630E828E56051F4001DD9733DBC51740E9616875726E2240EFE192E34EF911402B33A5F5B7A40440BFD6A546E8071940B60F79CBD5EF2140E3C4573B8A2310402E90A0F8316601403E7B2E5393E00B4068588CBAD6FE0C401CD3139678902340F1D4230D6E6B224077137CD3F4190640D66EBBD05CD71C405EA27A6B60AB094004A9143B1A27124027F73B1405FAE93FA8514832AB7718405F605628D28D1140101FD8F15F200E406B63EC8497801140A8380EBC5AAEF03FF2E9B12D036E0540BB29E5B512FA1640EE224C512E8DE43FF8359204E1DA1940CE33F6251B0F1640C806D2C5A6051340B6114F7633C30B4090DB2F9FAC6816401FBE4C1421B5FD3F2FA86F99D365BD3FF71F990E9DFE1540E8A4F78DAF7D0D4052EFA99CF6841640F7730AF2B3D1F03FF9F5436CB0F0E93F4DA25EF069CEE83FE1B721C66B5E0C40B1524145D50F1740F7CDFDD5E3BEE93F25CE8AA889FE1940FB22A12DE7321540193735D07C462240E09C11A5BD0115408F1CE90C8CAC2240603E59315C7D08408E91EC116A861F401CEF8E8CD5460B40E7374C344881FF3F6FD6E07D552E0D406138D730431B2240FA0AD28C45130440923CD7F7E1C0234041F50F2219021240F73DEAAF5718F13F32CB9E0436F71140A0FEB3E6C7DFF33F0518963FDFD6F83FEEEE01BA2F67CA3F876C205D6C8A18401A6D5512D9A71340ADDEE17668F81040A1F2AFE595EB044084F3A96395521E40D61D8B6D52E11B404F779E78CEA61C40AF3E1EFAEE56BA3F849B8C2AC3D817401CCD91955F46F23F8A7269FCC2AB194044A33B889D791240378DEDB5A0F70340E0D8B3E7323D20404F93196F2BBDE83FF0BF95ECD80811405BEB8B84B65C20400C06D7DCD11F2340F08B4B55DAE2234013D21A834EE818400CE6AF90B9BA2040FBE8D495CF32F83F1233FB3C46091E403A2009FB76720240CF11F92EA5BE1940ADFBC742742802406AA164726A67DD3F710514EAE9131C40DF313CF6B3D8FD3F37A6272CF1F01C40B9C1508715EE1E403B1BF2CF0C62F73F7903CC7C07FF17405CAB3DEC85B21140F60CE19865AF12401D226E4E25031D401EC539EAE878F93F91B75CFDD8E41440406B7EFCA5B51540EBE2361AC03B0440EA20AF0793521940EEB089CC5CE00B401D8EAED2DD052140232E008DD265F33F39807EDFBF79C53F9ED2C1FA3F6713400E68E90AB6292040DBA337DC47EEF63FABE7A4F78D4F11409B1BD31396B809409E23F25D4ABD2240E603029D499BA23F84622B685A62D63F666CE8667FD82040E947C329736313403F1BB96E4A512240AA9D616A4B1DFE3FA7B1BD16F41E13405DFC6D4F90181540D270CADC7C1320403868AF3E1EBAF93FEA043411363C1040809BC58B85D921408EACFC3218731D402194F77134C70B402E3C2F151BE31840813D26529ADD1440E4F560527C4C1240904B1C792032E73FCD5A0A48FB1FDE3F1B1021AE9CCD1C40988922A46E670640904B1C7920B2BC3F7E71A94A5BBC0B4088B839950CC0FD3FAB984A3FE12C1440F22895F0841E1B40E2B034F0A35A1440CD3B4ED1912421401F1494A295C32240D7BD1589091A1E4033880FECF89F1E40E2B19FC552C414408E76DCF0BBE9ED3F06DA1D520C401A405F45460724E11E407BA2EBC20F8E1B40D6FF39CC97C72140DAFF006BD58E1D4087A8C29FE18DF83FA6B915C26AAC1F409581035ABAE20E40319413ED2A141E40C05B2041F163E03F41834D9D47A519408C135FED282E16406878B306EF6321405BED612F14F0F23F9B215514AF9216405BEECC04C35909404AD05FE811A301400E2F88484D132240B66455849B4C2140CE35CCD078220F40C24CDBBFB2320840C4CE143AAFB922407CD3F4D90197FB3FBA111615713AFD3FC3B7B06EBC5B0040E54526E0D798204044DC9C4A06200F40BD512B4CDFEBF13F209C4F1DAB14FF3FDAFF006BD5BE224071395E81E8991B4010CD3CB9A640F83F3F726BD26D892240BF28417FA1070F40A7785C548B680B401684F23E8E461